{
  "version": "1.0",
  "truncation": {
    "direction": "Right",
    "max_length": 512,
    "strategy": "LongestFirst",
    "stride": 0
  },
  "padding": null,
  "added_tokens": [
    {
      "id": 0,
      "content": "[PAD]",
      "single_word": false,
      "lstrip": false,
      "rstrip": false,
      "normalized": false,
      "special": true
    },
    {
      "id": 1,
      "content": "[UNK]",
      "single_word": false,
      "lstrip": false,
      "rstrip": false,
      "normalized": false,
      "special": true
    },
    {
      "id": 2,
      "content": "[CLS]",
      "single_word": false,
      "lstrip": false,
      "rstrip": false,
      "normalized": false,
      "special": true
    },
    {
      "id": 3,
      "content": "[SEP]",
      "single_word": false,
      "lstrip": false,
      "rstrip": false,
      "normalized": false,
      "special": true
    },
    {
      "id": 4,
      "content": "[MASK]",
      "single_word": false,
      "lstrip": false,
      "rstrip": false,
      "normalized": false,
      "special": true
    }
  ],
  "normalizer": {
    "type": "BertNormalizer",
    "clean_text": true,
    "handle_chinese_chars": true,
    "strip_accents": null,
    "lowercase": true
  },
  "pre_tokenizer": {
    "type": "BertPreTokenizer"
  },
  "post_processor": {
    "type": "TemplateProcessing",
    "single": [
      {
        "SpecialToken": {
          "id": "[CLS]",
          "type_id": 0
        }
      },
      {
        "Sequence": {
          "id": "A",
          "type_id": 0
        }
      },
      {
        "SpecialToken": {
          "id": "[SEP]",
          "type_id": 0
        }
      }
    ],
    "pair": [
      {
        "SpecialToken": {
          "id": "[CLS]",
          "type_id": 0
        }
      },
      {
        "Sequence": {
          "id": "A",
          "type_id": 0
        }
      },
      {
        "SpecialToken": {
          "id": "[SEP]",
          "type_id": 0
        }
      },
      {
        "Sequence": {
          "id": "B",
          "type_id": 1
        }
      },
      {
        "SpecialToken": {
          "id": "[SEP]",
          "type_id": 1
        }
      }
    ],
    "special_tokens": {
      "[CLS]": {
        "id": "[CLS]",
        "ids": [
          2
        ],
        "tokens": [
          "[CLS]"
        ]
      },
      "[SEP]": {
        "id": "[SEP]",
        "ids": [
          3
        ],
        "tokens": [
          "[SEP]"
        ]
      }
    }
  },
  "decoder": {
    "type": "WordPiece",
    "prefix": "##",
    "cleanup": true
  },
  "model": {
    "type": "WordPiece",
    "unk_token": "[UNK]",
    "continuing_subword_prefix": "##",
    "max_input_chars_per_word": 100,
    "vocab": {
      "[PAD]": 0,
      "[UNK]": 1,
      "[CLS]": 2,
      "[SEP]": 3,
      "[MASK]": 4,
      "!": 5,
      "\"": 6,
      "#": 7,
      "$": 8,
      "%": 9,
      "&": 10,
      "'": 11,
      "(": 12,
      ")": 13,
      "*": 14,
      "+": 15,
      ",": 16,
      "-": 17,
      ".": 18,
      "/": 19,
      "0": 20,
      "1": 21,
      "2": 22,
      "3": 23,
      "4": 24,
      "5": 25,
      "6": 26,
      "7": 27,
      "8": 28,
      "9": 29,
      ":": 30,
      ";": 31,
      "<": 32,
      "=": 33,
      ">": 34,
      "?": 35,
      "@": 36,
      "[": 37,
      "\\": 38,
      "]": 39,
      "^": 40,
      "_": 41,
      "`": 42,
      "a": 43,
      "b": 44,
      "c": 45,
      "d": 46,
      "e": 47,
      "f": 48,
      "g": 49,
      "h": 50,
      "i": 51,
      "j": 52,
      "k": 53,
      "l": 54,
      "m": 55,
      "n": 56,
      "o": 57,
      "p": 58,
      "q": 59,
      "r": 60,
      "s": 61,
      "t": 62,
      "u": 63,
      "v": 64,
      "w": 65,
      "x": 66,
      "y": 67,
      "z": 68,
      "{": 69,
      "|": 70,
      "}": 71,
      "~": 72,
      "##n": 73,
      "##0": 74,
      "##r": 75,
      "##i": 76,
      "##l": 77,
      "##g": 78,
      "##j": 79,
      "##k": 80,
      "##t": 81,
      "##o": 82,
      "##m": 83,
      "##y": 84,
      "##w": 85,
      "##s": 86,
      "##p": 87,
      "##a": 88,
      "##e": 89,
      "##8": 90,
      "##4": 91,
      "##u": 92,
      "##b": 93,
      "##7": 94,
      "##q": 95,
      "##d": 96,
      "##z": 97,
      "##x": 98,
      "##f": 99,
      "##5": 100,
      "##v": 101,
      "##6": 102,
      "##1": 103,
      "##h": 104,
      "##9": 105,
      "##c": 106,
      "##3": 107,
      "##2": 108,
      "th": 109,
      "##er": 110,
      "##in": 111,
      "the": 112,
      "##on": 113,
      "##or": 114,
      "##en": 115,
      "##an": 116,
      "##ed": 117,
      "##es": 118,
      "##ing": 119,
      "##ar": 120,
      "##at": 121,
      "to": 122,
      "##nd": 123,
      "##as": 124,
      "in": 125,
      "##al": 126,
      "##it": 127,
      "##ou": 128,
      "##is": 129,
      "and": 130,
      "of": 131,
      "##am": 132,
      "##ay": 133,
      "##ll": 134,
      "##re": 135,
      "##om": 136,
      "##ic": 137,
      "##st": 138,
      "##ac": 139,
      "##et": 140,
      "on": 141,
      "##el": 142,
      "##ot": 143,
      "st": 144,
      "##ad": 145,
      "##ut": 146,
      "##id": 147,
      "be": 148,
      "for": 149,
      "##le": 150,
      "##ow": 151,
      "##ion": 152,
      "##ve": 153,
      "##ig": 154,
      "##ur": 155,
      "wh": 156,
      "he": 157,
      "##ent": 158,
      "re": 159,
      "se": 160,
      "##ter": 161,
      "##ir": 162,
      "##ith": 163,
      "##ly": 164,
      "##ch": 165,
      "##ers": 166,
      "with": 167,
      "that": 168,
      "at": 169,
      "it": 170,
      "##im": 171,
      "pl": 172,
      "is": 173,
      "##ver": 174,
      "##ill": 175,
      "##ld": 176,
      "##os": 177,
      "we": 178,
      "his": 179,
      "was": 180,
      "##th": 181,
      "an": 182,
      "##igh": 183,
      "play": 184,
      "as": 185,
      "##ce": 186,
      "le": 187,
      "de": 188,
      "##ag": 189,
      "fr": 190,
      "ch": 191,
      "##ts": 192,
      "##ack": 193,
      "go": 194,
      "##ak": 195,
      "pr": 196,
      "ha": 197,
      "##all": 198,
      "##ere": 199,
      "##ain": 200,
      "gam": 201,
      "ne": 202,
      "20": 203,
      "te": 204,
      "sh": 205,
      "##ard": 206,
      "##ol": 207,
      "##and": 208,
      "##se": 209,
      "##est": 210,
      "##un": 211,
      "com": 212,
      "##ight": 213,
      "but": 214,
      "##il": 215,
      "con": 216,
      "##ason": 217,
      "##ri": 218,
      "##ore": 219,
      "this": 220,
      "sp": 221,
      "##pp": 222,
      "##ast": 223,
      "##ear": 224,
      "have": 225,
      "su": 226,
      "has": 227,
      "sa": 228,
      "##ive": 229,
      "co": 230,
      "##ct": 231,
      "team": 232,
      "you": 233,
      "##od": 234,
      "al": 235,
      "will": 236,
      "from": 237,
      "##ould": 238,
      "game": 239,
      "ag": 240,
      "season": 241,
      "br": 242,
      "##us": 243,
      "tr": 244,
      "tw": 245,
      "##ess": 246,
      "##ust": 247,
      "##ate": 248,
      "##art": 249,
      "not": 250,
      "##ue": 251,
      "##ke": 252,
      "201": 253,
      "po": 254,
      "##ation": 255,
      "##gh": 256,
      "year": 257,
      "out": 258,
      "all": 259,
      "##ff": 260,
      "they": 261,
      "##our": 262,
      "##ul": 263,
      "##ick": 264,
      "off": 265,
      "af": 266,
      "up": 267,
      "##ant": 268,
      "##ie": 269,
      "by": 270,
      "are": 271,
      "said": 272,
      "##ok": 273,
      "fir": 274,
      "##day": 275,
      "##ome": 276,
      "##ach": 277,
      "win": 278,
      "first": 279,
      "lo": 280,
      "after": 281,
      "##ort": 282,
      "ex": 283,
      "cl": 284,
      "tim": 285,
      "##ck": 286,
      "li": 287,
      "##op": 288,
      "##out": 289,
      "##ound": 290,
      "##ab": 291,
      "##em": 292,
      "one": 293,
      "##um": 294,
      "ro": 295,
      "who": 296,
      "ab": 297,
      "their": 298,
      "##own": 299,
      "so": 300,
      "##iv": 301,
      "fin": 302,
      "fo": 303,
      "sc": 304,
      "##ans": 305,
      "##ra": 306,
      "##ning": 307,
      "had": 308,
      "##ree": 309,
      "##ond": 310,
      "##end": 311,
      "##ough": 312,
      "wor": 313,
      "un": 314,
      "qu": 315,
      "##ally": 316,
      "or": 317,
      "again": 318,
      "over": 319,
      "can": 320,
      "##ity": 321,
      "back": 322,
      "do": 323,
      "two": 324,
      "##ich": 325,
      "no": 326,
      "get": 327,
      "##av": 328,
      "##ine": 329,
      "##ap": 330,
      "new": 331,
      "man": 332,
      "##ia": 333,
      "mo": 334,
      "ar": 335,
      "def": 336,
      "##ake": 337,
      "more": 338,
      "just": 339,
      "##amp": 340,
      "en": 341,
      "him": 342,
      "last": 343,
      "##ist": 344,
      "##ions": 345,
      "pro": 346,
      "poin": 347,
      "##ect": 348,
      "##ge": 349,
      "time": 350,
      "when": 351,
      "##ens": 352,
      "##ies": 353,
      "##ek": 354,
      "##ft": 355,
      "##ball": 356,
      "been": 357,
      "##ide": 358,
      "per": 359,
      "sec": 360,
      "car": 361,
      "##atch": 362,
      "##ong": 363,
      "mar": 364,
      "cont": 365,
      "##ord": 366,
      "ad": 367,
      "##her": 368,
      "there": 369,
      "##ip": 370,
      "against": 371,
      "##urn": 372,
      "##ber": 373,
      "##one": 374,
      "##als": 375,
      "me": 376,
      "fe": 377,
      "##son": 378,
      "##to": 379,
      "10": 380,
      "week": 381,
      "jo": 382,
      "##cc": 383,
      "##mp": 384,
      "##eld": 385,
      "run": 386,
      "if": 387,
      "##ep": 388,
      "##ub": 389,
      "second": 390,
      "##ven": 391,
      "gr": 392,
      "kn": 393,
      "three": 394,
      "##au": 395,
      "##act": 396,
      "##ass": 397,
      "leag": 398,
      "##so": 399,
      "games": 400,
      "##ace": 401,
      "##ose": 402,
      "what": 403,
      "four": 404,
      "##ame": 405,
      "##ton": 406,
      "us": 407,
      "would": 408,
      "##ro": 409,
      "league": 410,
      "##man": 411,
      "##ade": 412,
      "##mer": 413,
      "##ian": 414,
      "##ely": 415,
      "##oss": 416,
      "bo": 417,
      "about": 418,
      "coach": 419,
      "op": 420,
      "##ish": 421,
      "were": 422,
      "rec": 423,
      "##ays": 424,
      "bl": 425,
      "##ield": 426,
      "start": 427,
      "pre": 428,
      "ever": 429,
      "##ile": 430,
      "players": 431,
      "some": 432,
      "##up": 433,
      "##if": 434,
      "how": 435,
      "like": 436,
      "##ud": 437,
      "##ence": 438,
      "min": 439,
      "rep": 440,
      "gu": 441,
      "##oun": 442,
      "did": 443,
      "also": 444,
      "cr": 445,
      "##ings": 446,
      "##uch": 447,
      "than": 448,
      "##ous": 449,
      "##ting": 450,
      "##land": 451,
      "##age": 452,
      "could": 453,
      "##ment": 454,
      "comp": 455,
      "foot": 456,
      "thr": 457,
      "gre": 458,
      "into": 459,
      "bas": 460,
      "exp": 461,
      "##arter": 462,
      "bec": 463,
      "##ix": 464,
      "##ated": 465,
      "##ice": 466,
      "good": 467,
      "##ink": 468,
      "look": 469,
      "mon": 470,
      "ke": 471,
      "##orts": 472,
      "end": 473,
      "big": 474,
      "##ull": 475,
      "going": 476,
      "points": 477,
      "##ble": 478,
      "now": 479,
      "ho": 480,
      "state": 481,
      "##ory": 482,
      "19": 483,
      "##ite": 484,
      "##fl": 485,
      "bet": 486,
      "##hing": 487,
      "##ure": 488,
      "##fore": 489,
      "champ": 490,
      "which": 491,
      "##ry": 492,
      "##ards": 493,
      "dur": 494,
      "ph": 495,
      "before": 496,
      "lead": 497,
      "##ins": 498,
      "sch": 499,
      "only": 500,
      "##ah": 501,
      "scor": 502,
      "str": 503,
      "di": 504,
      "##cl": 505,
      "##ance": 506,
      "##ense": 507,
      "##ign": 508,
      "##back": 509,
      "res": 510,
      "##ther": 511,
      "##ial": 512,
      "any": 513,
      "##ug": 514,
      "fl": 515,
      "##ier": 516,
      "##qu": 517,
      "##able": 518,
      "down": 519,
      "##iss": 520,
      "my": 521,
      "ser": 522,
      "them": 523,
      "top": 524,
      "und": 525,
      "every": 526,
      "high": 527,
      "imp": 528,
      "##tt": 529,
      "inter": 530,
      "##ner": 531,
      "app": 532,
      "football": 533,
      "hit": 534,
      "##ary": 535,
      "##we": 536,
      "##ict": 537,
      "best": 538,
      "during": 539,
      "player": 540,
      "##ition": 541,
      "while": 542,
      "nfl": 543,
      "right": 544,
      "##les": 545,
      "##ors": 546,
      "12": 547,
      "quarter": 548,
      "##iz": 549,
      "ret": 550,
      "##ets": 551,
      "ear": 552,
      "##ys": 553,
      "star": 554,
      "most": 555,
      "11": 556,
      "ve": 557,
      "ap": 558,
      "##ks": 559,
      "line": 560,
      "##sp": 561,
      "got": 562,
      "day": 563,
      "think": 564,
      "##ird": 565,
      "make": 566,
      "##let": 567,
      "made": 568,
      "##io": 569,
      "open": 570,
      "may": 571,
      "ball": 572,
      "##ec": 573,
      "##ince": 574,
      "round": 575,
      "##pt": 576,
      "##ensive": 577,
      "don": 578,
      "##xt": 579,
      "world": 580,
      "inj": 581,
      "sports": 582,
      "under": 583,
      "##aw": 584,
      "match": 585,
      "am": 586,
      "##itt": 587,
      "injur": 588,
      "final": 589,
      "dra": 590,
      "won": 591,
      "need": 592,
      "well": 593,
      "##ang": 594,
      "home": 595,
      "hal": 596,
      "##ind": 597,
      "five": 598,
      "still": 599,
      "way": 600,
      "##ause": 601,
      "pass": 602,
      "know": 603,
      "##ery": 604,
      "##anc": 605,
      "six": 606,
      "bot": 607,
      "##ving": 608,
      "goal": 609,
      "other": 610,
      "left": 611,
      "bu": 612,
      "even": 613,
      "since": 614,
      "years": 615,
      "champions": 616,
      "dec": 617,
      "our": 618,
      "##ited": 619,
      "##ne": 620,
      "teams": 621,
      "next": 622,
      "dis": 623,
      "##ues": 624,
      "##itch": 625,
      "##ved": 626,
      "##elp": 627,
      "head": 628,
      "##atur": 629,
      "work": 630,
      "part": 631,
      "then": 632,
      "##aking": 633,
      "ind": 634,
      "her": 635,
      "care": 636,
      "here": 637,
      "sl": 638,
      "field": 639,
      "rel": 640,
      "##hip": 641,
      "see": 642,
      "##ail": 643,
      "##nes": 644,
      "##itter": 645,
      "through": 646,
      "pick": 647,
      "##ady": 648,
      "third": 649,
      "aw": 650,
      "##ves": 651,
      "conf": 652,
      "##ba": 653,
      "night": 654,
      "##ool": 655,
      "because": 656,
      "add": 657,
      "cle": 658,
      "ste": 659,
      "long": 660,
      "club": 661,
      "red": 662,
      "##other": 663,
      "##vel": 664,
      "twitter": 665,
      "##llow": 666,
      "want": 667,
      "##ris": 668,
      "rem": 669,
      "##att": 670,
      "##00": 671,
      "des": 672,
      "take": 673,
      "##ank": 674,
      "bre": 675,
      "##ced": 676,
      "point": 677,
      "##ious": 678,
      "##alk": 679,
      "att": 680,
      "15": 681,
      "its": 682,
      "should": 683,
      "great": 684,
      "played": 685,
      "ma": 686,
      "2019": 687,
      "much": 688,
      "##br": 689,
      "miss": 690,
      "##ire": 691,
      "being": 692,
      "##off": 693,
      "##ock": 694,
      "##vent": 695,
      "city": 696,
      "cent": 697,
      "half": 698,
      "##uck": 699,
      "ll": 700,
      "put": 701,
      "old": 702,
      "coll": 703,
      "13": 704,
      "sm": 705,
      "acc": 706,
      "sign": 707,
      "really": 708,
      "##ston": 709,
      "tri": 710,
      "where": 711,
      "shot": 712,
      "minut": 713,
      "set": 714,
      "both": 715,
      "bel": 716,
      "reg": 717,
      "par": 718,
      "el": 719,
      "14": 720,
      "though": 721,
      "##tain": 722,
      "lot": 723,
      "sund": 724,
      "career": 725,
      "she": 726,
      "ben": 727,
      "##per": 728,
      "##ates": 729,
      "##urs": 730,
      "##gr": 731,
      "##hn": 732,
      "pat": 733,
      "yards": 734,
      "##ty": 735,
      "hand": 736,
      "nation": 737,
      "cup": 738,
      "16": 739,
      "mi": 740,
      "rece": 741,
      "##ward": 742,
      "another": 743,
      "pe": 744,
      "show": 745,
      "##ult": 746,
      "##ley": 747,
      "##ision": 748,
      "draft": 749,
      "playing": 750,
      "##for": 751,
      "satur": 752,
      "saturday": 753,
      "##ams": 754,
      "those": 755,
      "bar": 756,
      "##ase": 757,
      "follow": 758,
      "very": 759,
      "pos": 760,
      "2018": 761,
      "##urr": 762,
      "sunday": 763,
      "##led": 764,
      "mill": 765,
      "202": 766,
      "wr": 767,
      "ass": 768,
      "finish": 769,
      "cor": 770,
      "return": 771,
      "cap": 772,
      "##ov": 773,
      "john": 774,
      "tit": 775,
      "help": 776,
      "vs": 777,
      "##clud": 778,
      "##ffer": 779,
      "##ester": 780,
      "does": 781,
      "eng": 782,
      "opp": 783,
      "post": 784,
      "##ating": 785,
      "pitch": 786,
      "##az": 787,
      "fans": 788,
      "bow": 789,
      "18": 790,
      "happ": 791,
      "17": 792,
      "come": 793,
      "##ash": 794,
      "30": 795,
      "mid": 796,
      "ed": 797,
      "record": 798,
      "##erson": 799,
      "col": 800,
      "nor": 801,
      "didn": 802,
      "act": 803,
      "##cus": 804,
      "better": 805,
      "includ": 806,
      "##be": 807,
      "##ild": 808,
      "##ket": 809,
      "lat": 810,
      "##oup": 811,
      "##ons": 812,
      "former": 813,
      "##field": 814,
      "vict": 815,
      "manag": 816,
      "char": 817,
      "call": 818,
      "##ior": 819,
      "los": 820,
      "med": 821,
      "##ise": 822,
      "your": 823,
      "free": 824,
      "scored": 825,
      "coun": 826,
      "pa": 827,
      "##ead": 828,
      "comm": 829,
      "injury": 830,
      "cour": 831,
      "playoff": 832,
      "ow": 833,
      "contr": 834,
      "pres": 835,
      "hop": 836,
      "##ph": 837,
      "quarterback": 838,
      "##ations": 839,
      "##ork": 840,
      "25": 841,
      "##ected": 842,
      "##down": 843,
      "hard": 844,
      "rus": 845,
      "turn": 846,
      "championship": 847,
      "dr": 848,
      "dou": 849,
      "##ave": 850,
      "2017": 851,
      "sw": 852,
      "nba": 853,
      "went": 854,
      "##ps": 855,
      "##sel": 856,
      "mich": 857,
      "##ents": 858,
      "touch": 859,
      "defense": 860,
      "##bo": 861,
      "bowl": 862,
      "inning": 863,
      "loss": 864,
      "series": 865,
      "##omet": 866,
      "say": 867,
      "keep": 868,
      "##ters": 869,
      "today": 870,
      "sur": 871,
      "watch": 872,
      "try": 873,
      "things": 874,
      "esp": 875,
      "##ics": 876,
      "##ami": 877,
      "sou": 878,
      "2020": 879,
      "##enn": 880,
      "##aining": 881,
      "ac": 882,
      "##ium": 883,
      "##iday": 884,
      "##ger": 885,
      "around": 886,
      "##ath": 887,
      "21": 888,
      "##akes": 889,
      "##are": 890,
      "##side": 891,
      "defensive": 892,
      "deal": 893,
      "##pped": 894,
      "came": 895,
      "giv": 896,
      "appear": 897,
      "cons": 898,
      "##enc": 899,
      "dav": 900,
      "2016": 901,
      "200": 902,
      "##lo": 903,
      "##ars": 904,
      "compet": 905,
      "many": 906,
      "camp": 907,
      "past": 908,
      "school": 909,
      "stre": 910,
      "base": 911,
      "report": 912,
      "##ib": 913,
      "##ott": 914,
      "##ied": 915,
      "united": 916,
      "##ik": 917,
      "##ane": 918,
      "##ames": 919,
      "side": 920,
      "super": 921,
      "24": 922,
      "##ood": 923,
      "ter": 924,
      "too": 925,
      "htt": 926,
      "##iver": 927,
      "##ular": 928,
      "##og": 929,
      "feel": 930,
      "minutes": 931,
      "##ern": 932,
      "somet": 933,
      "##ina": 934,
      "jon": 935,
      "colle": 936,
      "##ament": 937,
      "month": 938,
      "##ats": 939,
      "contin": 940,
      "##fc": 941,
      "##enal": 942,
      "##ont": 943,
      "##get": 944,
      "friday": 945,
      "ath": 946,
      "ang": 947,
      "youn": 948,
      "san": 949,
      "seven": 950,
      "goals": 951,
      "few": 952,
      "real": 953,
      "##bs": 954,
      "im": 955,
      "##ittle": 956,
      "##iew": 957,
      "mc": 958,
      "sk": 959,
      "away": 960,
      "##gan": 961,
      "place": 962,
      "far": 963,
      "athlet": 964,
      "##ster": 965,
      "##ling": 966,
      "england": 967,
      "22": 968,
      "##erence": 969,
      "##tim": 970,
      "ext": 971,
      "times": 972,
      "peop": 973,
      "took": 974,
      "little": 975,
      "inc": 976,
      "##ona": 977,
      "forward": 978,
      "cal": 979,
      "war": 980,
      "people": 981,
      "##ever": 982,
      "har": 983,
      "##rew": 984,
      "move": 985,
      "##ower": 986,
      "sim": 987,
      "ann": 988,
      "##ently": 989,
      "##ange": 990,
      "news": 991,
      "winning": 992,
      "million": 993,
      "##ham": 994,
      "##ef": 995,
      "##une": 996,
      "##ility": 997,
      "allow": 998,
      "fourth": 999,
      "##ined": 1000,
      "early": 1001,
      "college": 1002,
      "beat": 1003,
      "differ": 1004,
      "never": 1005,
      "rank": 1006,
      "victory": 1007,
      "fight": 1008,
      "23": 1009,
      "##ell": 1010,
      "##ett": 1011,
      "##ler": 1012,
      "##ots": 1013,
      "##ween": 1014,
      "##cent": 1015,
      "##gers": 1016,
      "tourn": 1017,
      "touchdown": 1018,
      "hou": 1019,
      "basket": 1020,
      "full": 1021,
      "wed": 1022,
      "dri": 1023,
      "getting": 1024,
      "between": 1025,
      "tex": 1026,
      "thurs": 1027,
      "##but": 1028,
      "thursday": 1029,
      "south": 1030,
      "title": 1031,
      "lik": 1032,
      "##by": 1033,
      "##thing": 1034,
      "stad": 1035,
      "event": 1036,
      "##ille": 1037,
      "west": 1038,
      "young": 1039,
      "##vious": 1040,
      "each": 1041,
      "##eter": 1042,
      "bay": 1043,
      "ju": 1044,
      "beh": 1045,
      "stadium": 1046,
      "sit": 1047,
      "maj": 1048,
      "##ress": 1049,
      "jack": 1050,
      "sho": 1051,
      "same": 1052,
      "told": 1053,
      "poss": 1054,
      "ml": 1055,
      "##ical": 1056,
      "##ee": 1057,
      "perfor": 1058,
      "own": 1059,
      "num": 1060,
      "##ights": 1061,
      "ty": 1062,
      "angel": 1063,
      "monday": 1064,
      "might": 1065,
      "##ably": 1066,
      "pic": 1067,
      "ra": 1068,
      "##ible": 1069,
      "conference": 1070,
      "##vin": 1071,
      "running": 1072,
      "eight": 1073,
      "##nesday": 1074,
      "wednesday": 1075,
      "##co": 1076,
      "##hl": 1077,
      "##ways": 1078,
      "mor": 1079,
      "stri": 1080,
      "aver": 1081,
      "score": 1082,
      "coming": 1083,
      "##ral": 1084,
      "mat": 1085,
      "cel": 1086,
      "la": 1087,
      "brown": 1088,
      "##ially": 1089,
      "##ody": 1090,
      "position": 1091,
      "em": 1092,
      "basketball": 1093,
      "tues": 1094,
      "washing": 1095,
      "##ful": 1096,
      "lost": 1097,
      "manager": 1098,
      "seem": 1099,
      "tuesday": 1100,
      "##ider": 1101,
      "card": 1102,
      "washington": 1103,
      "york": 1104,
      "tal": 1105,
      "let": 1106,
      "##head": 1107,
      "##und": 1108,
      "chance": 1109,
      "these": 1110,
      "press": 1111,
      "reb": 1112,
      "stand": 1113,
      "always": 1114,
      "hist": 1115,
      "break": 1116,
      "tournament": 1117,
      "mem": 1118,
      "##sk": 1119,
      "runs": 1120,
      "##ey": 1121,
      "starting": 1122,
      "guard": 1123,
      "leg": 1124,
      "defend": 1125,
      "having": 1126,
      "##med": 1127,
      "dep": 1128,
      "##gin": 1129,
      "##uary": 1130,
      "offensive": 1131,
      "center": 1132,
      "##ugg": 1133,
      "something": 1134,
      "pract": 1135,
      "##ann": 1136,
      "##eng": 1137,
      "resp": 1138,
      "sum": 1139,
      "usa": 1140,
      "##vers": 1141,
      "list": 1142,
      "offense": 1143,
      "##ville": 1144,
      "stra": 1145,
      "##ivers": 1146,
      "inst": 1147,
      "face": 1148,
      "##ident": 1149,
      "behind": 1150,
      "##bur": 1151,
      "able": 1152,
      "making": 1153,
      "including": 1154,
      "##self": 1155,
      "28": 1156,
      "##ounds": 1157,
      "##ortun": 1158,
      "kick": 1159,
      "##ually": 1160,
      "##til": 1161,
      "27": 1162,
      "percent": 1163,
      "eas": 1164,
      "##lex": 1165,
      "talk": 1166,
      "https": 1167,
      "rest": 1168,
      "contract": 1169,
      "mom": 1170,
      "inv": 1171,
      "prem": 1172,
      "##ale": 1173,
      "however": 1174,
      "##air": 1175,
      "mark": 1176,
      "led": 1177,
      "bro": 1178,
      "group": 1179,
      "throw": 1180,
      "##ather": 1181,
      "26": 1182,
      "##iting": 1183,
      "says": 1184,
      "willi": 1185,
      "james": 1186,
      "jan": 1187,
      "##odu": 1188,
      "seasons": 1189,
      "##orn": 1190,
      "##meric": 1191,
      "guys": 1192,
      "mad": 1193,
      "national": 1194,
      "trans": 1195,
      "major": 1196,
      "without": 1197,
      "find": 1198,
      "del": 1199,
      "americ": 1200,
      "val": 1201,
      "##ists": 1202,
      "short": 1203,
      "class": 1204,
      "step": 1205,
      "##ony": 1206,
      "##ances": 1207,
      "##ca": 1208,
      "##int": 1209,
      "aust": 1210,
      "tack": 1211,
      "gold": 1212,
      "##ew": 1213,
      "tom": 1214,
      "##ready": 1215,
      "already": 1216,
      "supp": 1217,
      "give": 1218,
      "why": 1219,
      "added": 1220,
      "walk": 1221,
      "##oy": 1222,
      "straight": 1223,
      "ten": 1224,
      "sing": 1225,
      "##ief": 1226,
      "##ring": 1227,
      "until": 1228,
      "##ford": 1229,
      "baseball": 1230,
      "##ald": 1231,
      "days": 1232,
      "enough": 1233,
      "succ": 1234,
      "lu": 1235,
      "late": 1236,
      "##aff": 1237,
      "div": 1238,
      "eff": 1239,
      "##vid": 1240,
      "spe": 1241,
      "bit": 1242,
      "count": 1243,
      "##ertain": 1244,
      "doesn": 1245,
      "##ms": 1246,
      "gen": 1247,
      "catch": 1248,
      "phil": 1249,
      "houston": 1250,
      "adv": 1251,
      "##gest": 1252,
      "history": 1253,
      "scoring": 1254,
      "fif": 1255,
      "happen": 1256,
      "ge": 1257,
      "success": 1258,
      "race": 1259,
      "##ugh": 1260,
      "##ost": 1261,
      "av": 1262,
      "offic": 1263,
      "spec": 1264,
      "ham": 1265,
      "quest": 1266,
      "looking": 1267,
      "ufc": 1268,
      "ask": 1269,
      "progr": 1270,
      "started": 1271,
      "##season": 1272,
      "##cept": 1273,
      "squ": 1274,
      "che": 1275,
      "clear": 1276,
      "different": 1277,
      "gian": 1278,
      "announ": 1279,
      "sure": 1280,
      "vis": 1281,
      "##ual": 1282,
      "later": 1283,
      "training": 1284,
      "following": 1285,
      "power": 1286,
      "nine": 1287,
      "fac": 1288,
      "north": 1289,
      "march": 1290,
      "##ago": 1291,
      "level": 1292,
      "least": 1293,
      "##fe": 1294,
      "sol": 1295,
      "bill": 1296,
      "test": 1297,
      "complet": 1298,
      "mike": 1299,
      "green": 1300,
      "mil": 1301,
      "shoot": 1302,
      "ahead": 1303,
      "##fer": 1304,
      "##ark": 1305,
      "smith": 1306,
      "##mber": 1307,
      "premier": 1308,
      "media": 1309,
      "##thers": 1310,
      "##ency": 1311,
      "29": 1312,
      "curr": 1313,
      "##ily": 1314,
      "##view": 1315,
      "thing": 1316,
      "bull": 1317,
      "yet": 1318,
      "##ds": 1319,
      "pot": 1320,
      "spot": 1321,
      "##der": 1322,
      "er": 1323,
      "##riz": 1324,
      "performan": 1325,
      "##its": 1326,
      "det": 1327,
      "phot": 1328,
      "rook": 1329,
      "sport": 1330,
      "likely": 1331,
      "##ired": 1332,
      "qual": 1333,
      "summer": 1334,
      "patri": 1335,
      "belie": 1336,
      "31": 1337,
      "sel": 1338,
      "net": 1339,
      "strong": 1340,
      "finished": 1341,
      "sen": 1342,
      "remain": 1343,
      "front": 1344,
      "ob": 1345,
      "once": 1346,
      "sn": 1347,
      "hold": 1348,
      "bad": 1349,
      "##key": 1350,
      "##ession": 1351,
      "dom": 1352,
      "wom": 1353,
      "##augh": 1354,
      "tor": 1355,
      "desp": 1356,
      "wasn": 1357,
      "aug": 1358,
      "##yan": 1359,
      "##chester": 1360,
      "int": 1361,
      "job": 1362,
      "weeks": 1363,
      "##pool": 1364,
      "exper": 1365,
      "decision": 1366,
      "stay": 1367,
      "certain": 1368,
      "practice": 1369,
      "000": 1370,
      "jones": 1371,
      "accord": 1372,
      "##ational": 1373,
      "liver": 1374,
      "near": 1375,
      "sal": 1376,
      "##ael": 1377,
      "sched": 1378,
      "done": 1379,
      "despite": 1380,
      "##rect": 1381,
      "##aps": 1382,
      "##ci": 1383,
      "according": 1384,
      "##yle": 1385,
      "alex": 1386,
      "##ump": 1387,
      "yard": 1388,
      "##esh": 1389,
      "eag": 1390,
      "##ember": 1391,
      "opportun": 1392,
      "angeles": 1393,
      "##ities": 1394,
      "opt": 1395,
      "thom": 1396,
      "den": 1397,
      "liverpool": 1398,
      "chic": 1399,
      "innings": 1400,
      "##attle": 1401,
      "oly": 1402,
      "##wh": 1403,
      "williams": 1404,
      "reach": 1405,
      "jos": 1406,
      "dan": 1407,
      "##ez": 1408,
      "form": 1409,
      "flor": 1410,
      "eur": 1411,
      "sy": 1412,
      "manchester": 1413,
      "double": 1414,
      "olymp": 1415,
      "park": 1416,
      "##ipp": 1417,
      "patriots": 1418,
      "miami": 1419,
      "##osp": 1420,
      "intern": 1421,
      "sept": 1422,
      "fav": 1423,
      "plays": 1424,
      "overall": 1425,
      "##ages": 1426,
      "trade": 1427,
      "quick": 1428,
      "2015": 1429,
      "roster": 1430,
      "##res": 1431,
      "prob": 1432,
      "fut": 1433,
      "mlb": 1434,
      "rock": 1435,
      "##bers": 1436,
      "close": 1437,
      "##ota": 1438,
      "##igan": 1439,
      "##way": 1440,
      "##ned": 1441,
      "pan": 1442,
      "texas": 1443,
      "##sea": 1444,
      "person": 1445,
      "dist": 1446,
      "chicago": 1447,
      "espn": 1448,
      "50": 1449,
      "impro": 1450,
      "mart": 1451,
      "host": 1452,
      "giants": 1453,
      "wide": 1454,
      "import": 1455,
      "tot": 1456,
      "wins": 1457,
      "ok": 1458,
      "lou": 1459,
      "##ately": 1460,
      "rookie": 1461,
      "rac": 1462,
      "##cel": 1463,
      "regular": 1464,
      "49": 1465,
      "##eg": 1466,
      "mean": 1467,
      "potent": 1468,
      "tough": 1469,
      "weekend": 1470,
      "missed": 1471,
      "consider": 1472,
      "##inals": 1473,
      "oct": 1474,
      "men": 1475,
      "tre": 1476,
      "##red": 1477,
      "##ida": 1478,
      "##ho": 1479,
      "fall": 1480,
      "##ific": 1481,
      "##ru": 1482,
      "gar": 1483,
      "strugg": 1484,
      "interest": 1485,
      "johnson": 1486,
      "repl": 1487,
      "geor": 1488,
      "kind": 1489,
      "wa": 1490,
      "given": 1491,
      "40": 1492,
      "road": 1493,
      "gener": 1494,
      "##pl": 1495,
      "course": 1496,
      "##ines": 1497,
      "##go": 1498,
      "future": 1499,
      "meet": 1500,
      "expected": 1501,
      "nhl": 1502,
      "taking": 1503,
      "corner": 1504,
      "david": 1505,
      "##sh": 1506,
      "defe": 1507,
      "receiver": 1508,
      "##ino": 1509,
      "aren": 1510,
      "women": 1511,
      "ger": 1512,
      "oh": 1513,
      "doing": 1514,
      "##ness": 1515,
      "along": 1516,
      "##rid": 1517,
      "##oph": 1518,
      "june": 1519,
      "cut": 1520,
      "##inc": 1521,
      "boston": 1522,
      "##ule": 1523,
      "##igning": 1524,
      "ago": 1525,
      "rob": 1526,
      "iss": 1527,
      "white": 1528,
      "##iel": 1529,
      "trying": 1530,
      "##ansas": 1531,
      "##olina": 1532,
      "found": 1533,
      "ariz": 1534,
      "gl": 1535,
      "probably": 1536,
      "pack": 1537,
      "chris": 1538,
      "##ared": 1539,
      "##de": 1540,
      "ars": 1541,
      "expect": 1542,
      "clos": 1543,
      "##rick": 1544,
      "wild": 1545,
      "champion": 1546,
      "chief": 1547,
      "chr": 1548,
      "squad": 1549,
      "playoffs": 1550,
      "pay": 1551,
      "##oney": 1552,
      "number": 1553,
      "division": 1554,
      "##app": 1555,
      "cover": 1556,
      "##ama": 1557,
      "isn": 1558,
      "chel": 1559,
      "heal": 1560,
      "cre": 1561,
      "among": 1562,
      "jackson": 1563,
      "##line": 1564,
      "michigan": 1565,
      "prett": 1566,
      "bat": 1567,
      "important": 1568,
      "ref": 1569,
      "##iod": 1570,
      "gave": 1571,
      "prom": 1572,
      "100": 1573,
      "sub": 1574,
      "vir": 1575,
      "pretty": 1576,
      "florida": 1577,
      "matt": 1578,
      "moment": 1579,
      "period": 1580,
      "court": 1581,
      "apr": 1582,
      "july": 1583,
      "experi": 1584,
      "##ither": 1585,
      "produ": 1586,
      "signed": 1587,
      "##body": 1588,
      "pol": 1589,
      "##ants": 1590,
      "##ative": 1591,
      "change": 1592,
      "performance": 1593,
      "eagles": 1594,
      "##ush": 1595,
      "##ures": 1596,
      "teamm": 1597,
      "##ments": 1598,
      "less": 1599,
      "ryan": 1600,
      "chelsea": 1601,
      "himself": 1602,
      "##ively": 1603,
      "atl": 1604,
      "direct": 1605,
      "##anch": 1606,
      "tig": 1607,
      "reason": 1608,
      "enter": 1609,
      "fact": 1610,
      "talent": 1611,
      "##lic": 1612,
      "##cuss": 1613,
      "ready": 1614,
      "starter": 1615,
      "opening": 1616,
      "allowed": 1617,
      "##veland": 1618,
      "chall": 1619,
      "##ement": 1620,
      "cleveland": 1621,
      "ent": 1622,
      "##ners": 1623,
      "guy": 1624,
      "live": 1625,
      "such": 1626,
      "era": 1627,
      "du": 1628,
      "blue": 1629,
      "shots": 1630,
      "vide": 1631,
      "mcc": 1632,
      "##my": 1633,
      "trip": 1634,
      "cow": 1635,
      "photo": 1636,
      "##itive": 1637,
      "tar": 1638,
      "carolina": 1639,
      "surp": 1640,
      "##ction": 1641,
      "##str": 1642,
      "chang": 1643,
      "##ought": 1644,
      "love": 1645,
      "##gether": 1646,
      "je": 1647,
      "penal": 1648,
      "makes": 1649,
      "april": 1650,
      "sid": 1651,
      "##ize": 1652,
      "gol": 1653,
      "prof": 1654,
      "fifth": 1655,
      "##ma": 1656,
      "ir": 1657,
      "everything": 1658,
      "rb": 1659,
      "canad": 1660,
      "international": 1661,
      "january": 1662,
      "due": 1663,
      "earl": 1664,
      "##less": 1665,
      "hom": 1666,
      "thought": 1667,
      "starts": 1668,
      "read": 1669,
      "pit": 1670,
      "arsenal": 1671,
      "arizona": 1672,
      "##ckey": 1673,
      "europ": 1674,
      "##ically": 1675,
      "assists": 1676,
      "32": 1677,
      "attem": 1678,
      "35": 1679,
      "##inn": 1680,
      "content": 1681,
      "seen": 1682,
      "##ged": 1683,
      "michael": 1684,
      "comb": 1685,
      "staff": 1686,
      "situ": 1687,
      "##yn": 1688,
      "trad": 1689,
      "##que": 1690,
      "##akers": 1691,
      "case": 1692,
      "##anta": 1693,
      "austral": 1694,
      "dem": 1695,
      "ev": 1696,
      "room": 1697,
      "lar": 1698,
      "health": 1699,
      "together": 1700,
      "sem": 1701,
      "hon": 1702,
      "199": 1703,
      "tech": 1704,
      "minute": 1705,
      "indian": 1706,
      "##ney": 1707,
      "sever": 1708,
      "nca": 1709,
      "domin": 1710,
      "##ered": 1711,
      "become": 1712,
      "##ribut": 1713,
      "rebounds": 1714,
      "land": 1715,
      "black": 1716,
      "saw": 1717,
      "bus": 1718,
      "louis": 1719,
      "bal": 1720,
      "previous": 1721,
      "wat": 1722,
      "low": 1723,
      "bron": 1724,
      "draw": 1725,
      "total": 1726,
      "ncaa": 1727,
      "country": 1728,
      "leading": 1729,
      "paul": 1730,
      "##ator": 1731,
      "jord": 1732,
      "role": 1733,
      "dall": 1734,
      "coup": 1735,
      "life": 1736,
      "##ten": 1737,
      "##ety": 1738,
      "##over": 1739,
      "exc": 1740,
      "prep": 1741,
      "ww": 1742,
      "american": 1743,
      "midfield": 1744,
      "hits": 1745,
      "##ime": 1746,
      "winner": 1747,
      "signing": 1748,
      "##lor": 1749,
      "##ether": 1750,
      "wil": 1751,
      "visit": 1752,
      "rele": 1753,
      "bri": 1754,
      "christ": 1755,
      "impress": 1756,
      "block": 1757,
      "##su": 1758,
      "##odgers": 1759,
      "dallas": 1760,
      "##ended": 1761,
      "surpris": 1762,
      "jr": 1763,
      "attack": 1764,
      "whether": 1765,
      "port": 1766,
      "reported": 1767,
      "special": 1768,
      "##ces": 1769,
      "oppon": 1770,
      "prosp": 1771,
      "pun": 1772,
      "bring": 1773,
      "susp": 1774,
      "##icket": 1775,
      "senior": 1776,
      "##onto": 1777,
      "fel": 1778,
      "nick": 1779,
      "fit": 1780,
      "comes": 1781,
      "saf": 1782,
      "##utive": 1783,
      "tour": 1784,
      "##oles": 1785,
      "##bert": 1786,
      "single": 1787,
      "##aim": 1788,
      "kansas": 1789,
      "##ebr": 1790,
      "everyone": 1791,
      "gets": 1792,
      "toronto": 1793,
      "##oma": 1794,
      "##ari": 1795,
      "cowbo": 1796,
      "##ased": 1797,
      "box": 1798,
      "warri": 1799,
      "##dle": 1800,
      "joe": 1801,
      "od": 1802,
      "earlier": 1803,
      "##cast": 1804,
      "continue": 1805,
      "coaches": 1806,
      "anth": 1807,
      "announced": 1808,
      "asked": 1809,
      "rich": 1810,
      "focus": 1811,
      "josh": 1812,
      "question": 1813,
      "looked": 1814,
      "cur": 1815,
      "potential": 1816,
      "video": 1817,
      "hall": 1818,
      "www": 1819,
      "##stand": 1820,
      "alm": 1821,
      "madrid": 1822,
      "##iders": 1823,
      "partic": 1824,
      "months": 1825,
      "opportunity": 1826,
      "met": 1827,
      "receiv": 1828,
      "##elph": 1829,
      "ins": 1830,
      "pred": 1831,
      "##reg": 1832,
      "33": 1833,
      "##eman": 1834,
      "wood": 1835,
      "key": 1836,
      "august": 1837,
      "##lin": 1838,
      "##umb": 1839,
      "biggest": 1840,
      "celebr": 1841,
      "fan": 1842,
      "cowboys": 1843,
      "held": 1844,
      "##com": 1845,
      "dro": 1846,
      "jordan": 1847,
      "sox": 1848,
      "losing": 1849,
      "##ised": 1850,
      "##ado": 1851,
      "steel": 1852,
      "couple": 1853,
      "called": 1854,
      "der": 1855,
      "strik": 1856,
      "recent": 1857,
      "agency": 1858,
      "##amily": 1859,
      "##ained": 1860,
      "##ending": 1861,
      "fun": 1862,
      "##cess": 1863,
      "##awks": 1864,
      "spring": 1865,
      "warriors": 1866,
      "outside": 1867,
      "ton": 1868,
      "proble": 1869,
      "lock": 1870,
      "grand": 1871,
      "family": 1872,
      "obvious": 1873,
      "doub": 1874,
      "##ccer": 1875,
      "##ico": 1876,
      "used": 1877,
      "wanted": 1878,
      "tell": 1879,
      "##ued": 1880,
      "##adelph": 1881,
      "2014": 1882,
      "##adelphia": 1883,
      "must": 1884,
      "##no": 1885,
      "golf": 1886,
      "philadelphia": 1887,
      "pull": 1888,
      "sain": 1889,
      "##ount": 1890,
      "lineback": 1891,
      "assist": 1892,
      "arg": 1893,
      "ranked": 1894,
      "ut": 1895,
      "fail": 1896,
      "looks": 1897,
      "favor": 1898,
      "offseason": 1899,
      "davis": 1900,
      "lear": 1901,
      "fri": 1902,
      "lineup": 1903,
      "minnes": 1904,
      "tow": 1905,
      "plan": 1906,
      "cam": 1907,
      "sun": 1908,
      "##roit": 1909,
      "##itions": 1910,
      "minnesota": 1911,
      "main": 1912,
      "##ric": 1913,
      "##cons": 1914,
      "support": 1915,
      "conc": 1916,
      "kevin": 1917,
      "jim": 1918,
      "pet": 1919,
      "east": 1920,
      "##ention": 1921,
      "touchdowns": 1922,
      "anything": 1923,
      "detroit": 1924,
      "mess": 1925,
      "lim": 1926,
      "##amed": 1927,
      "money": 1928,
      "shooting": 1929,
      "chiefs": 1930,
      "sto": 1931,
      "brand": 1932,
      "average": 1933,
      "abs": 1934,
      "##ends": 1935,
      "##ying": 1936,
      "tight": 1937,
      "34": 1938,
      "##bc": 1939,
      "action": 1940,
      "transfer": 1941,
      "either": 1942,
      "tak": 1943,
      "##ga": 1944,
      "bears": 1945,
      "sam": 1946,
      "streak": 1947,
      "##ided": 1948,
      "ran": 1949,
      "bru": 1950,
      "thomas": 1951,
      "ended": 1952,
      "hu": 1953,
      "hur": 1954,
      "##aring": 1955,
      "yan": 1956,
      "join": 1957,
      "maybe": 1958,
      "hope": 1959,
      "agent": 1960,
      "program": 1961,
      "franc": 1962,
      "several": 1963,
      "##af": 1964,
      "almost": 1965,
      "track": 1966,
      "tackle": 1967,
      "espec": 1968,
      "dev": 1969,
      "jun": 1970,
      "panthers": 1971,
      "seed": 1972,
      "cardinals": 1973,
      "##ffic": 1974,
      "##ection": 1975,
      "##ects": 1976,
      "especially": 1977,
      "conn": 1978,
      "needed": 1979,
      "##burgh": 1980,
      "soccer": 1981,
      "celt": 1982,
      "##lish": 1983,
      "build": 1984,
      "##cos": 1985,
      "prot": 1986,
      "fresh": 1987,
      "working": 1988,
      "##aced": 1989,
      "matches": 1990,
      "claim": 1991,
      "soon": 1992,
      "injuries": 1993,
      "atlanta": 1994,
      "use": 1995,
      "sack": 1996,
      "rams": 1997,
      "europe": 1998,
      "##velop": 1999,
      "happy": 2000,
      "riv": 2001,
      "brad": 2002,
      "knee": 2003,
      "veter": 2004,
      "##ength": 2005,
      "wal": 2006,
      "nothing": 2007,
      "##aly": 2008,
      "hour": 2009,
      "fur": 2010,
      "needs": 2011,
      "ko": 2012,
      "##cial": 2013,
      "bench": 2014,
      "pitts": 2015,
      "franch": 2016,
      "organ": 2017,
      "pub": 2018,
      "finals": 2019,
      "speed": 2020,
      "fig": 2021,
      "averag": 2022,
      "fast": 2023,
      "ca": 2024,
      "ver": 2025,
      "mas": 2026,
      "begin": 2027,
      "ohio": 2028,
      "develop": 2029,
      "sent": 2030,
      "qualif": 2031,
      "pittsburgh": 2032,
      "steelers": 2033,
      "univers": 2034,
      "captain": 2035,
      "mag": 2036,
      "yanke": 2037,
      "##oc": 2038,
      "golden": 2039,
      "wants": 2040,
      "athletic": 2041,
      "september": 2042,
      "##uled": 2043,
      "inside": 2044,
      "seconds": 2045,
      "situation": 2046,
      "deep": 2047,
      "45": 2048,
      "provid": 2049,
      "possible": 2050,
      "jets": 2051,
      "rap": 2052,
      "experience": 2053,
      "thre": 2054,
      "##ny": 2055,
      "sil": 2056,
      "expl": 2057,
      "lakers": 2058,
      "cra": 2059,
      "debut": 2060,
      "stat": 2061,
      "competition": 2062,
      "##ote": 2063,
      "##iol": 2064,
      "ber": 2065,
      "##outs": 2066,
      "lions": 2067,
      "diffic": 2068,
      "tv": 2069,
      "stop": 2070,
      "cub": 2071,
      "discuss": 2072,
      "36": 2073,
      "##ted": 2074,
      "seattle": 2075,
      "safety": 2076,
      "brady": 2077,
      "##ison": 2078,
      "via": 2079,
      "president": 2080,
      "##ucky": 2081,
      "##ured": 2082,
      "mer": 2083,
      "name": 2084,
      "felt": 2085,
      "##ized": 2086,
      "ground": 2087,
      "##uel": 2088,
      "coaching": 2089,
      "##cri": 2090,
      "story": 2091,
      "sixth": 2092,
      "adm": 2093,
      "kid": 2094,
      "pac": 2095,
      "qb": 2096,
      "##sw": 2097,
      "cho": 2098,
      "ol": 2099,
      "##itted": 2100,
      "latest": 2101,
      "tigers": 2102,
      "bell": 2103,
      "schedule": 2104,
      "hockey": 2105,
      "cond": 2106,
      "broncos": 2107,
      "art": 2108,
      "##ension": 2109,
      "hill": 2110,
      "passes": 2111,
      "recru": 2112,
      "49ers": 2113,
      "dece": 2114,
      "##ka": 2115,
      "##ism": 2116,
      "check": 2117,
      "##icks": 2118,
      "suffer": 2119,
      "finally": 2120,
      "light": 2121,
      "anthony": 2122,
      "##ming": 2123,
      "fam": 2124,
      "else": 2125,
      "##fect": 2126,
      "certainly": 2127,
      "##ully": 2128,
      "##pe": 2129,
      "challen": 2130,
      "##tch": 2131,
      "conse": 2132,
      "##car": 2133,
      "fant": 2134,
      "fox": 2135,
      "##ye": 2136,
      "browns": 2137,
      "knock": 2138,
      "mot": 2139,
      "##urning": 2140,
      "turned": 2141,
      "franchise": 2142,
      "##aker": 2143,
      "seems": 2144,
      "##uff": 2145,
      "fly": 2146,
      "rang": 2147,
      "difficult": 2148,
      "penalty": 2149,
      "dar": 2150,
      "##kins": 2151,
      "##time": 2152,
      "ill": 2153,
      "trav": 2154,
      "december": 2155,
      "appro": 2156,
      "result": 2157,
      "hot": 2158,
      "stud": 2159,
      "current": 2160,
      "middle": 2161,
      "hun": 2162,
      "taken": 2163,
      "##ander": 2164,
      "law": 2165,
      "takes": 2166,
      "##olph": 2167,
      "tamp": 2168,
      "bry": 2169,
      "##ators": 2170,
      "hasn": 2171,
      "##den": 2172,
      "morning": 2173,
      "entire": 2174,
      "jeff": 2175,
      "##ati": 2176,
      "linebacker": 2177,
      "believe": 2178,
      "##celona": 2179,
      "##ws": 2180,
      "raiders": 2181,
      "##aves": 2182,
      "yankees": 2183,
      "france": 2184,
      "##aign": 2185,
      "##iers": 2186,
      "injured": 2187,
      "instead": 2188,
      "mont": 2189,
      "simp": 2190,
      "##apol": 2191,
      "38": 2192,
      "fa": 2193,
      "helped": 2194,
      "barcelona": 2195,
      "means": 2196,
      "scott": 2197,
      "##ept": 2198,
      "strike": 2199,
      "huge": 2200,
      "packers": 2201,
      "arri": 2202,
      "est": 2203,
      "##inho": 2204,
      "actually": 2205,
      "mary": 2206,
      "matter": 2207,
      "stars": 2208,
      "jose": 2209,
      "offer": 2210,
      "##isco": 2211,
      "okl": 2212,
      "worth": 2213,
      "##ross": 2214,
      "##tern": 2215,
      "cost": 2216,
      "shar": 2217,
      "avail": 2218,
      "campaign": 2219,
      "fc": 2220,
      "goes": 2221,
      "loc": 2222,
      "nearly": 2223,
      "impact": 2224,
      "passing": 2225,
      "es": 2226,
      "leave": 2227,
      "##enty": 2228,
      "anton": 2229,
      "##ev": 2230,
      "et": 2231,
      "appeared": 2232,
      "rav": 2233,
      "matchup": 2234,
      "pal": 2235,
      "university": 2236,
      "respect": 2237,
      "ron": 2238,
      "fed": 2239,
      "pressure": 2240,
      "phill": 2241,
      "spent": 2242,
      "##ober": 2243,
      "##ital": 2244,
      "enj": 2245,
      "bur": 2246,
      "oklah": 2247,
      "##selves": 2248,
      "perfect": 2249,
      "37": 2250,
      "intercept": 2251,
      "crow": 2252,
      "picks": 2253,
      "easy": 2254,
      "images": 2255,
      "nove": 2256,
      "febr": 2257,
      "general": 2258,
      "aff": 2259,
      "kyle": 2260,
      "october": 2261,
      "november": 2262,
      "improve": 2263,
      "obviously": 2264,
      "view": 2265,
      "oklahoma": 2266,
      "spurs": 2267,
      "invol": 2268,
      "quite": 2269,
      "became": 2270,
      "teammates": 2271,
      "stretch": 2272,
      "gir": 2273,
      "february": 2274,
      "defin": 2275,
      "oak": 2276,
      "drive": 2277,
      "color": 2278,
      "olympic": 2279,
      "##inal": 2280,
      "alth": 2281,
      "stan": 2282,
      "kent": 2283,
      "die": 2284,
      "##alo": 2285,
      "cav": 2286,
      "##osed": 2287,
      "heav": 2288,
      "defender": 2289,
      "tonight": 2290,
      "although": 2291,
      "##ests": 2292,
      "ability": 2293,
      "##work": 2294,
      "##ski": 2295,
      "steph": 2296,
      "##pping": 2297,
      "asso": 2298,
      "air": 2299,
      "vill": 2300,
      "associ": 2301,
      "##ories": 2302,
      "consec": 2303,
      "##ren": 2304,
      "alab": 2305,
      "zone": 2306,
      "##weight": 2307,
      "giving": 2308,
      "extra": 2309,
      "consecutive": 2310,
      "couldn": 2311,
      "emp": 2312,
      "across": 2313,
      "agre": 2314,
      "##pm": 2315,
      "wel": 2316,
      "##bed": 2317,
      "cross": 2318,
      "challenge": 2319,
      "tampa": 2320,
      "solid": 2321,
      "push": 2322,
      "fre": 2323,
      "pair": 2324,
      "ide": 2325,
      "saying": 2326,
      "##eason": 2327,
      "understand": 2328,
      "cubs": 2329,
      "enjoy": 2330,
      "##gy": 2331,
      "rh": 2332,
      "##antage": 2333,
      "denver": 2334,
      "athletes": 2335,
      "preseason": 2336,
      "fal": 2337,
      "orig": 2338,
      "arena": 2339,
      "german": 2340,
      "##row": 2341,
      "redsk": 2342,
      "area": 2343,
      "##ove": 2344,
      "nov": 2345,
      "gone": 2346,
      "bott": 2347,
      "earned": 2348,
      "lin": 2349,
      "fair": 2350,
      "veteran": 2351,
      "##ls": 2352,
      "charl": 2353,
      "##inger": 2354,
      "alabama": 2355,
      "##con": 2356,
      "defeat": 2357,
      "hitting": 2358,
      "reser": 2359,
      "##ax": 2360,
      "positive": 2361,
      "tie": 2362,
      "sevent": 2363,
      "redskins": 2364,
      "russ": 2365,
      "often": 2366,
      "##ries": 2367,
      "##see": 2368,
      "aut": 2369,
      "currently": 2370,
      "roy": 2371,
      "rush": 2372,
      "60": 2373,
      "astr": 2374,
      "junior": 2375,
      "nationals": 2376,
      "statement": 2377,
      "showed": 2378,
      "##ults": 2379,
      "australia": 2380,
      "##ians": 2381,
      "rangers": 2382,
      "lack": 2383,
      "related": 2384,
      "roll": 2385,
      "##estern": 2386,
      "tay": 2387,
      "##aron": 2388,
      "##itely": 2389,
      "glo": 2390,
      "addition": 2391,
      "##ilar": 2392,
      "available": 2393,
      "getty": 2394,
      "disapp": 2395,
      "rad": 2396,
      "##iness": 2397,
      "named": 2398,
      "stage": 2399,
      "tied": 2400,
      "rout": 2401,
      "##any": 2402,
      "buff": 2403,
      "seventh": 2404,
      "dun": 2405,
      "tennes": 2406,
      "vik": 2407,
      "within": 2408,
      "advantage": 2409,
      "42": 2410,
      "##eth": 2411,
      "order": 2412,
      "chances": 2413,
      "wol": 2414,
      "recover": 2415,
      "proj": 2416,
      "ul": 2417,
      "harris": 2418,
      "concern": 2419,
      "term": 2420,
      "plus": 2421,
      "dodgers": 2422,
      "cinc": 2423,
      "##aught": 2424,
      "adam": 2425,
      "small": 2426,
      "astros": 2427,
      "2013": 2428,
      "nice": 2429,
      "coverage": 2430,
      "dead": 2431,
      "award": 2432,
      "wall": 2433,
      "##ero": 2434,
      "central": 2435,
      "texans": 2436,
      "##els": 2437,
      "organiz": 2438,
      "##orters": 2439,
      "twice": 2440,
      "commun": 2441,
      "seah": 2442,
      "midfielder": 2443,
      "francisco": 2444,
      "target": 2445,
      "gri": 2446,
      "dre": 2447,
      "##oint": 2448,
      "taylor": 2449,
      "41": 2450,
      "##ennis": 2451,
      "equ": 2452,
      "body": 2453,
      "worst": 2454,
      "option": 2455,
      "tennessee": 2456,
      "rod": 2457,
      "mod": 2458,
      "##lly": 2459,
      "lose": 2460,
      "saints": 2461,
      "happened": 2462,
      "##innati": 2463,
      "public": 2464,
      "scr": 2465,
      "requ": 2466,
      "prior": 2467,
      "dolph": 2468,
      "seahawks": 2469,
      "cincinnati": 2470,
      "profession": 2471,
      "georg": 2472,
      "ris": 2473,
      "aaron": 2474,
      "throughout": 2475,
      "##cell": 2476,
      "answ": 2477,
      "row": 2478,
      "justin": 2479,
      "board": 2480,
      "daniel": 2481,
      "##news": 2482,
      "antonio": 2483,
      "whole": 2484,
      "colts": 2485,
      "##dy": 2486,
      "jay": 2487,
      "ell": 2488,
      "mult": 2489,
      "worked": 2490,
      "da": 2491,
      "ele": 2492,
      "numbers": 2493,
      "ravens": 2494,
      "clubs": 2495,
      "pur": 2496,
      "plenty": 2497,
      "opener": 2498,
      "##inson": 2499,
      "##use": 2500,
      "phys": 2501,
      "##ai": 2502,
      "recently": 2503,
      "andrew": 2504,
      "##ordin": 2505,
      "dolphins": 2506,
      "someone": 2507,
      "true": 2508,
      "rot": 2509,
      "##ana": 2510,
      "cred": 2511,
      "crit": 2512,
      "surg": 2513,
      "moving": 2514,
      "mind": 2515,
      "sug": 2516,
      "remaining": 2517,
      "ant": 2518,
      "prop": 2519,
      "##ices": 2520,
      "198": 2521,
      "##ift": 2522,
      "nin": 2523,
      "interview": 2524,
      "returned": 2525,
      "##ective": 2526,
      "moved": 2527,
      "39": 2528,
      "highl": 2529,
      "beng": 2530,
      "virgin": 2531,
      "jers": 2532,
      "confir": 2533,
      "arm": 2534,
      "cornerback": 2535,
      "fer": 2536,
      "mal": 2537,
      "upd": 2538,
      "##ym": 2539,
      "knew": 2540,
      "##ional": 2541,
      "began": 2542,
      "coron": 2543,
      "consist": 2544,
      "##ench": 2545,
      "invest": 2546,
      "results": 2547,
      "others": 2548,
      "problem": 2549,
      "age": 2550,
      "steve": 2551,
      "##iff": 2552,
      "allen": 2553,
      "hands": 2554,
      "haven": 2555,
      "##ky": 2556,
      "##ovic": 2557,
      "max": 2558,
      "effort": 2559,
      "##urray": 2560,
      "buck": 2561,
      "missing": 2562,
      "500": 2563,
      "http": 2564,
      "van": 2565,
      "definitely": 2566,
      "vikings": 2567,
      "##gas": 2568,
      "predict": 2569,
      "celtics": 2570,
      "vers": 2571,
      "##ibility": 2572,
      "##imes": 2573,
      "##medi": 2574,
      "link": 2575,
      "troph": 2576,
      "jump": 2577,
      "penn": 2578,
      "threw": 2579,
      "2012": 2580,
      "swe": 2581,
      "##ighth": 2582,
      "control": 2583,
      "##form": 2584,
      "virginia": 2585,
      "kept": 2586,
      "##avir": 2587,
      "haw": 2588,
      "attempt": 2589,
      "prospect": 2590,
      "##athan": 2591,
      "wind": 2592,
      "ram": 2593,
      "##unch": 2594,
      "rushing": 2595,
      "impressive": 2596,
      "official": 2597,
      "90": 2598,
      "emer": 2599,
      "##wards": 2600,
      "forced": 2601,
      "##avirus": 2602,
      "frank": 2603,
      "fou": 2604,
      "perh": 2605,
      "perhaps": 2606,
      "coronavirus": 2607,
      "brought": 2608,
      "##ili": 2609,
      "span": 2610,
      "##eal": 2611,
      "braz": 2612,
      "##te": 2613,
      "##bune": 2614,
      "pod": 2615,
      "georgia": 2616,
      "mets": 2617,
      "##come": 2618,
      "##ender": 2619,
      "christian": 2620,
      "remains": 2621,
      "calif": 2622,
      "ple": 2623,
      "tackles": 2624,
      "##wood": 2625,
      "cop": 2626,
      "murray": 2627,
      "further": 2628,
      "##bron": 2629,
      "##zz": 2630,
      "##ette": 2631,
      "baltim": 2632,
      "rockets": 2633,
      "buffalo": 2634,
      "pitcher": 2635,
      "hor": 2636,
      "process": 2637,
      "wilson": 2638,
      "##fort": 2639,
      "brook": 2640,
      "##olut": 2641,
      "non": 2642,
      "quickly": 2643,
      "shut": 2644,
      "trail": 2645,
      "baltimore": 2646,
      "reports": 2647,
      "##rict": 2648,
      "appearances": 2649,
      "gon": 2650,
      "##oor": 2651,
      "knows": 2652,
      "ups": 2653,
      "kentucky": 2654,
      "wouldn": 2655,
      "postseason": 2656,
      "hopef": 2657,
      "00": 2658,
      "##oud": 2659,
      "depart": 2660,
      "strength": 2661,
      "son": 2662,
      "immedi": 2663,
      "book": 2664,
      "unf": 2665,
      "picked": 2666,
      "mass": 2667,
      "thanks": 2668,
      "martin": 2669,
      "contribut": 2670,
      "miller": 2671,
      "##apolis": 2672,
      "grow": 2673,
      "decided": 2674,
      "##ature": 2675,
      "##where": 2676,
      "##ips": 2677,
      "depth": 2678,
      "brazil": 2679,
      "hol": 2680,
      "anyone": 2681,
      "##enham": 2682,
      "rid": 2683,
      "particular": 2684,
      "caught": 2685,
      "fill": 2686,
      "fil": 2687,
      "48": 2688,
      "similar": 2689,
      "exec": 2690,
      "mv": 2691,
      "nbc": 2692,
      "exact": 2693,
      "racing": 2694,
      "skill": 2695,
      "dam": 2696,
      "business": 2697,
      "maryland": 2698,
      "surgery": 2699,
      "cricket": 2700,
      "spr": 2701,
      "unl": 2702,
      "bob": 2703,
      "44": 2704,
      "bills": 2705,
      "healthy": 2706,
      "sour": 2707,
      "carl": 2708,
      "oakland": 2709,
      "eighth": 2710,
      "kings": 2711,
      "professional": 2712,
      "jag": 2713,
      "battle": 2714,
      "##ucks": 2715,
      "approach": 2716,
      "featur": 2717,
      "patrick": 2718,
      "lew": 2719,
      "fell": 2720,
      "orland": 2721,
      "mel": 2722,
      "reached": 2723,
      "remember": 2724,
      "##ondon": 2725,
      "themselves": 2726,
      "crowd": 2727,
      "##aco": 2728,
      "##aving": 2729,
      "lebron": 2730,
      "bottom": 2731,
      "70": 2732,
      "43": 2733,
      "##ustr": 2734,
      "tott": 2735,
      "##idence": 2736,
      "mour": 2737,
      "##stem": 2738,
      "broad": 2739,
      "struggled": 2740,
      "followed": 2741,
      "market": 2742,
      "brit": 2743,
      "##icle": 2744,
      "##ingly": 2745,
      "coordin": 2746,
      "serious": 2747,
      "##sell": 2748,
      "diego": 2749,
      "based": 2750,
      "social": 2751,
      "tag": 2752,
      "vo": 2753,
      "talking": 2754,
      "save": 2755,
      "system": 2756,
      "brandon": 2757,
      "##iga": 2758,
      "##mond": 2759,
      "heat": 2760,
      "occ": 2761,
      "##owa": 2762,
      "##roll": 2763,
      "regard": 2764,
      "##ike": 2765,
      "freshman": 2766,
      "meeting": 2767,
      "bengals": 2768,
      "fire": 2769,
      "##yr": 2770,
      "continued": 2771,
      "signific": 2772,
      "chargers": 2773,
      "deser": 2774,
      "##mon": 2775,
      "andre": 2776,
      "clem": 2777,
      "feder": 2778,
      "##used": 2779,
      "tottenham": 2780,
      "sidel": 2781,
      "george": 2782,
      "##ilton": 2783,
      "issues": 2784,
      "##ron": 2785,
      "suffered": 2786,
      "acqu": 2787,
      "known": 2788,
      "slow": 2789,
      "rights": 2790,
      "##uct": 2791,
      "titans": 2792,
      "pain": 2793,
      "iowa": 2794,
      "fort": 2795,
      "mvp": 2796,
      "##rodu": 2797,
      "anderson": 2798,
      "##ister": 2799,
      "rather": 2800,
      "##asy": 2801,
      "highest": 2802,
      "53": 2803,
      "dropped": 2804,
      "greg": 2805,
      "cir": 2806,
      "##ze": 2807,
      "ye": 2808,
      "vegas": 2809,
      "olympics": 2810,
      "##thern": 2811,
      "pad": 2812,
      "##inch": 2813,
      "rom": 2814,
      "earn": 2815,
      "ice": 2816,
      "temp": 2817,
      "complete": 2818,
      "above": 2819,
      "##burg": 2820,
      "twe": 2821,
      "leader": 2822,
      "issue": 2823,
      "jason": 2824,
      "striker": 2825,
      "55": 2826,
      "bryant": 2827,
      "repres": 2828,
      "cru": 2829,
      "london": 2830,
      "tel": 2831,
      "mus": 2832,
      "opponents": 2833,
      "failed": 2834,
      "fine": 2835,
      "reve": 2836,
      "becom": 2837,
      "##oo": 2838,
      "orlando": 2839,
      "ninth": 2840,
      "india": 2841,
      "dig": 2842,
      "brian": 2843,
      "watching": 2844,
      "rum": 2845,
      "edge": 2846,
      "french": 2847,
      "##ara": 2848,
      "terms": 2849,
      "##cing": 2850,
      "las": 2851,
      "##ils": 2852,
      "heart": 2853,
      "##ials": 2854,
      "wrong": 2855,
      "##ilt": 2856,
      "released": 2857,
      "##ene": 2858,
      "threat": 2859,
      "unc": 2860,
      "##ission": 2861,
      "questions": 2862,
      "pop": 2863,
      "falcons": 2864,
      "mist": 2865,
      "received": 2866,
      "wis": 2867,
      "##book": 2868,
      "afterno": 2869,
      "hours": 2870,
      "75": 2871,
      "##keep": 2872,
      "tribune": 2873,
      "neg": 2874,
      "scheduled": 2875,
      "tur": 2876,
      "drew": 2877,
      "reds": 2878,
      "##ante": 2879,
      "rankings": 2880,
      "##ipped": 2881,
      "county": 2882,
      "wait": 2883,
      "jersey": 2884,
      "ment": 2885,
      "afternoon": 2886,
      "##ova": 2887,
      "##uk": 2888,
      "canada": 2889,
      "nas": 2890,
      "##ape": 2891,
      "fix": 2892,
      "heading": 2893,
      "bey": 2894,
      "drop": 2895,
      "scores": 2896,
      "trophy": 2897,
      "putting": 2898,
      "ultim": 2899,
      "everton": 2900,
      "everybody": 2901,
      "significant": 2902,
      "colorado": 2903,
      "##ges": 2904,
      "fantasy": 2905,
      "mcg": 2906,
      "below": 2907,
      "46": 2908,
      "confidence": 2909,
      "opponent": 2910,
      "##rig": 2911,
      "tennis": 2912,
      "leaders": 2913,
      "backs": 2914,
      "oppos": 2915,
      "triple": 2916,
      "leaving": 2917,
      "covid": 2918,
      "##ij": 2919,
      "shoulder": 2920,
      "##oth": 2921,
      "hopes": 2922,
      "favorite": 2923,
      "##na": 2924,
      "network": 2925,
      "leon": 2926,
      "##ites": 2927,
      "##ored": 2928,
      "attemp": 2929,
      "##ram": 2930,
      "lam": 2931,
      "##leans": 2932,
      "boss": 2933,
      "events": 2934,
      "king": 2935,
      "ronald": 2936,
      "leads": 2937,
      "orleans": 2938,
      "stuff": 2939,
      "pace": 2940,
      "organization": 2941,
      "plans": 2942,
      "excited": 2943,
      "commit": 2944,
      "##iter": 2945,
      "championships": 2946,
      "origin": 2947,
      "jud": 2948,
      "##cas": 2949,
      "##ried": 2950,
      "mma": 2951,
      "tried": 2952,
      "prov": 2953,
      "price": 2954,
      "joined": 2955,
      "european": 2956,
      "mourinho": 2957,
      "hum": 2958,
      "combined": 2959,
      "grad": 2960,
      "wer": 2961,
      "handed": 2962,
      "##imb": 2963,
      "47": 2964,
      "##ena": 2965,
      "states": 2966,
      "coordinator": 2967,
      "##kee": 2968,
      "##ination": 2969,
      "techn": 2970,
      "##cu": 2971,
      "heavy": 2972,
      "clemson": 2973,
      "afric": 2974,
      "contest": 2975,
      "cas": 2976,
      "seemed": 2977,
      "serv": 2978,
      "76": 2979,
      "sense": 2980,
      "eric": 2981,
      "rul": 2982,
      "gra": 2983,
      "##itz": 2984,
      "kill": 2985,
      "walker": 2986,
      "ank": 2987,
      "##rett": 2988,
      "ach": 2989,
      "woods": 2990,
      "provided": 2991,
      "##ha": 2992,
      "sky": 2993,
      "ban": 2994,
      "contact": 2995,
      "##owski": 2996,
      "centre": 2997,
      "overtime": 2998,
      "incre": 2999,
      "assistant": 3000,
      "incred": 3001,
      "id": 3002,
      "##olog": 3003,
      "##orm": 3004,
      "subs": 3005,
      "##ique": 3006,
      "##men": 3007,
      "hy": 3008,
      "##aled": 3009,
      "pie": 3010,
      "town": 3011,
      "jour": 3012,
      "continues": 3013,
      "semif": 3014,
      "changes": 3015,
      "force": 3016,
      "returning": 3017,
      "friend": 3018,
      "##oin": 3019,
      "feeling": 3020,
      "struck": 3021,
      "ros": 3022,
      "vot": 3023,
      "52": 3024,
      "mitch": 3025,
      "director": 3026,
      "involved": 3027,
      "##play": 3028,
      "posted": 3029,
      "##berg": 3030,
      "sometimes": 3031,
      "rival": 3032,
      "##emic": 3033,
      "pict": 3034,
      "cole": 3035,
      "os": 3036,
      "reportedly": 3037,
      "beyond": 3038,
      "sand": 3039,
      "spo": 3040,
      "whose": 3041,
      "travel": 3042,
      "##well": 3043,
      "##iple": 3044,
      "##under": 3045,
      "init": 3046,
      "aub": 3047,
      "throws": 3048,
      "51": 3049,
      "ba": 3050,
      "##sey": 3051,
      "paid": 3052,
      "ways": 3053,
      "mix": 3054,
      "deliver": 3055,
      "bayern": 3056,
      "exactly": 3057,
      "##zy": 3058,
      "##va": 3059,
      "cand": 3060,
      "personal": 3061,
      "local": 3062,
      "russell": 3063,
      "##pson": 3064,
      "hen": 3065,
      "tyler": 3066,
      "##aukee": 3067,
      "2011": 3068,
      "yes": 3069,
      "sacks": 3070,
      "##rem": 3071,
      "train": 3072,
      "brew": 3073,
      "goalkeep": 3074,
      "percentage": 3075,
      "##oken": 3076,
      "cy": 3077,
      "marl": 3078,
      "jam": 3079,
      "hamilton": 3080,
      "##real": 3081,
      "##waukee": 3082,
      "##regon": 3083,
      "bulls": 3084,
      "oregon": 3085,
      "ankle": 3086,
      "clipp": 3087,
      "deter": 3088,
      "milwaukee": 3089,
      "compete": 3090,
      "que": 3091,
      "avo": 3092,
      "rober": 3093,
      "bid": 3094,
      "##tors": 3095,
      "rug": 3096,
      "80": 3097,
      "comfort": 3098,
      "blues": 3099,
      "minor": 3100,
      "mls": 3101,
      "options": 3102,
      "thompson": 3103,
      "originally": 3104,
      "fifa": 3105,
      "##bb": 3106,
      "longer": 3107,
      "space": 3108,
      "utah": 3109,
      "##ging": 3110,
      "##rd": 3111,
      "credit": 3112,
      "##rell": 3113,
      "closer": 3114,
      "ends": 3115,
      "blow": 3116,
      "hole": 3117,
      "##anger": 3118,
      "##zo": 3119,
      "##ada": 3120,
      "ii": 3121,
      "matth": 3122,
      "wond": 3123,
      "54": 3124,
      "trou": 3125,
      "soph": 3126,
      "western": 3127,
      "outs": 3128,
      "america": 3129,
      "quality": 3130,
      "ep": 3131,
      "promot": 3132,
      "value": 3133,
      "hopefully": 3134,
      "bon": 3135,
      "range": 3136,
      "kh": 3137,
      "broke": 3138,
      "multiple": 3139,
      "pitching": 3140,
      "##bar": 3141,
      "feet": 3142,
      "progress": 3143,
      "bird": 3144,
      "feels": 3145,
      "acad": 3146,
      "gives": 3147,
      "moments": 3148,
      "limited": 3149,
      "represent": 3150,
      "throwing": 3151,
      "hear": 3152,
      "traded": 3153,
      "police": 3154,
      "##ives": 3155,
      "grab": 3156,
      "jer": 3157,
      "allowing": 3158,
      "austin": 3159,
      "carry": 3160,
      "rugby": 3161,
      "##ko": 3162,
      "kar": 3163,
      "jul": 3164,
      "teammate": 3165,
      "boun": 3166,
      "197": 3167,
      "using": 3168,
      "raptors": 3169,
      "odds": 3170,
      "boy": 3171,
      "##cour": 3172,
      "defence": 3173,
      "bor": 3174,
      "spl": 3175,
      "suggest": 3176,
      "managed": 3177,
      "daily": 3178,
      "##eless": 3179,
      "##ising": 3180,
      "eye": 3181,
      "##par": 3182,
      "frustr": 3183,
      "averaging": 3184,
      "##irt": 3185,
      "decl": 3186,
      "gun": 3187,
      "robert": 3188,
      "stats": 3189,
      "##while": 3190,
      "convers": 3191,
      "luck": 3192,
      "replac": 3193,
      "child": 3194,
      "absolut": 3195,
      "surprise": 3196,
      "burn": 3197,
      "figure": 3198,
      "winter": 3199,
      "clippers": 3200,
      "slam": 3201,
      "##irates": 3202,
      "elite": 3203,
      "salary": 3204,
      "doubt": 3205,
      "included": 3206,
      "poor": 3207,
      "##ican": 3208,
      "##ica": 3209,
      "jagu": 3210,
      "owner": 3211,
      "65": 3212,
      "idea": 3213,
      "inf": 3214,
      "##ient": 3215,
      "56": 3216,
      "officials": 3217,
      "##ivid": 3218,
      "ur": 3219,
      "oper": 3220,
      "##gs": 3221,
      "nascar": 3222,
      "thank": 3223,
      "members": 3224,
      "believes": 3225,
      "##orter": 3226,
      "batt": 3227,
      "rebound": 3228,
      "kids": 3229,
      "pand": 3230,
      "##pen": 3231,
      "##bor": 3232,
      "receiving": 3233,
      "sat": 3234,
      "manning": 3235,
      "##ata": 3236,
      "duke": 3237,
      "talks": 3238,
      "indianapolis": 3239,
      "eventually": 3240,
      "##atic": 3241,
      "##acy": 3242,
      "appearance": 3243,
      "physical": 3244,
      "##ola": 3245,
      "sac": 3246,
      "curry": 3247,
      "confirmed": 3248,
      "boys": 3249,
      "##ater": 3250,
      "determ": 3251,
      "floor": 3252,
      "hurt": 3253,
      "interesting": 3254,
      "##he": 3255,
      "lewis": 3256,
      "bir": 3257,
      "rate": 3258,
      "fighting": 3259,
      "2010": 3260,
      "averaged": 3261,
      "##ury": 3262,
      "difference": 3263,
      "thunder": 3264,
      "mis": 3265,
      "wo": 3266,
      "homer": 3267,
      "##coming": 3268,
      "pga": 3269,
      "nash": 3270,
      "opened": 3271,
      "##ta": 3272,
      "mah": 3273,
      "successful": 3274,
      "wiz": 3275,
      "respond": 3276,
      "##yes": 3277,
      "afc": 3278,
      "lsu": 3279,
      "##ibly": 3280,
      "simply": 3281,
      "mex": 3282,
      "richard": 3283,
      "feb": 3284,
      "preview": 3285,
      "##acts": 3286,
      "##dog": 3287,
      "##otte": 3288,
      "##ickets": 3289,
      "germany": 3290,
      "backup": 3291,
      "tony": 3292,
      "whate": 3293,
      "comment": 3294,
      "marcus": 3295,
      "whatever": 3296,
      "caval": 3297,
      "meanwhile": 3298,
      "seeing": 3299,
      "magic": 3300,
      "hel": 3301,
      "indiana": 3302,
      "##ano": 3303,
      "changed": 3304,
      "individ": 3305,
      "react": 3306,
      "matthew": 3307,
      "##iring": 3308,
      "community": 3309,
      "jaguars": 3310,
      "particip": 3311,
      "amaz": 3312,
      "rose": 3313,
      "norm": 3314,
      "house": 3315,
      "beating": 3316,
      "decis": 3317,
      "placed": 3318,
      "##apan": 3319,
      "reporters": 3320,
      "defending": 3321,
      "present": 3322,
      "defens": 3323,
      "distribut": 3324,
      "robinson": 3325,
      "mun": 3326,
      "gord": 3327,
      "pulled": 3328,
      "beginning": 3329,
      "##val": 3330,
      "##ini": 3331,
      "medal": 3332,
      "hoping": 3333,
      "##gen": 3334,
      "suspended": 3335,
      "titles": 3336,
      "receivers": 3337,
      "friends": 3338,
      "dream": 3339,
      "lee": 3340,
      "moves": 3341,
      "ken": 3342,
      "subscri": 3343,
      "dame": 3344,
      "var": 3345,
      "rotation": 3346,
      "cast": 3347,
      "attempts": 3348,
      "answer": 3349,
      "stephen": 3350,
      "prospects": 3351,
      "style": 3352,
      "sides": 3353,
      "alleg": 3354,
      "plate": 3355,
      "##ex": 3356,
      "stream": 3357,
      "gm": 3358,
      "starters": 3359,
      "table": 3360,
      "indians": 3361,
      "57": 3362,
      "spain": 3363,
      "greatest": 3364,
      "ori": 3365,
      "##ability": 3366,
      "losses": 3367,
      "58": 3368,
      "date": 3369,
      "bruins": 3370,
      "##idge": 3371,
      "island": 3372,
      "apnews": 3373,
      "##elf": 3374,
      "breaking": 3375,
      "member": 3376,
      "cavaliers": 3377,
      "immediately": 3378,
      "##ife": 3379,
      "##cats": 3380,
      "##port": 3381,
      "bullpen": 3382,
      "##elson": 3383,
      "sanch": 3384,
      "learn": 3385,
      "##emy": 3386,
      "fame": 3387,
      "59": 3388,
      "outfield": 3389,
      "lay": 3390,
      "columb": 3391,
      "opportunities": 3392,
      "68": 3393,
      "finishing": 3394,
      "chase": 3395,
      "completed": 3396,
      "66": 3397,
      "bats": 3398,
      "newton": 3399,
      "refere": 3400,
      "##ftime": 3401,
      "halftime": 3402,
      "67": 3403,
      "klo": 3404,
      "notre": 3405,
      "considered": 3406,
      "jake": 3407,
      "sophom": 3408,
      "none": 3409,
      "##oen": 3410,
      "candid": 3411,
      "##gins": 3412,
      "english": 3413,
      "myself": 3414,
      "72": 3415,
      "##ask": 3416,
      "rules": 3417,
      "possession": 3418,
      "eastern": 3419,
      "retire": 3420,
      "loan": 3421,
      "charlotte": 3422,
      "##iant": 3423,
      "sean": 3424,
      "goalkeeper": 3425,
      "japan": 3426,
      "##overs": 3427,
      "attention": 3428,
      "note": 3429,
      "rough": 3430,
      "quarterbacks": 3431,
      "owners": 3432,
      "ot": 3433,
      "russia": 3434,
      "stick": 3435,
      "office": 3436,
      "kl": 3437,
      "klopp": 3438,
      "##era": 3439,
      "gordon": 3440,
      "ross": 3441,
      "##ulation": 3442,
      "ps": 3443,
      "messi": 3444,
      "##agram": 3445,
      "##ished": 3446,
      "braves": 3447,
      "legend": 3448,
      "wizards": 3449,
      "##read": 3450,
      "mir": 3451,
      "detail": 3452,
      "shows": 3453,
      "griff": 3454,
      "puck": 3455,
      "fired": 3456,
      "sar": 3457,
      "driver": 3458,
      "catches": 3459,
      "##azz": 3460,
      "jays": 3461,
      "##ences": 3462,
      "##ute": 3463,
      "radio": 3464,
      "pandemic": 3465,
      "excell": 3466,
      "cous": 3467,
      "comeback": 3468,
      "71": 3469,
      "vol": 3470,
      "##cs": 3471,
      "australian": 3472,
      "instagram": 3473,
      "##utch": 3474,
      "##consin": 3475,
      "##okes": 3476,
      "durant": 3477,
      "core": 3478,
      "holding": 3479,
      "##icester": 3480,
      "louisville": 3481,
      "happens": 3482,
      "leonard": 3483,
      "mur": 3484,
      "##win": 3485,
      "leicester": 3486,
      "69": 3487,
      "confident": 3488,
      "californ": 3489,
      "ky": 3490,
      "pound": 3491,
      "improved": 3492,
      "avoid": 3493,
      "capit": 3494,
      "sett": 3495,
      "howard": 3496,
      "rand": 3497,
      "clash": 3498,
      "ener": 3499,
      "##bre": 3500,
      "cann": 3501,
      "llc": 3502,
      "rbi": 3503,
      "comments": 3504,
      "td": 3505,
      "adj": 3506,
      "ronaldo": 3507,
      "devils": 3508,
      "share": 3509,
      "guar": 3510,
      "##don": 3511,
      "portland": 3512,
      "##iola": 3513,
      "##kin": 3514,
      "##ume": 3515,
      "article": 3516,
      "wing": 3517,
      "64": 3518,
      "sound": 3519,
      "locker": 3520,
      "ending": 3521,
      "adding": 3522,
      "review": 3523,
      "showing": 3524,
      "rays": 3525,
      "faced": 3526,
      "selection": 3527,
      "wisconsin": 3528,
      "kelly": 3529,
      "##iano": 3530,
      "vent": 3531,
      "rio": 3532,
      "california": 3533,
      "upset": 3534,
      "shock": 3535,
      "drafted": 3536,
      "mention": 3537,
      "##ampton": 3538,
      "thinking": 3539,
      "##outh": 3540,
      "##uss": 3541,
      "deadline": 3542,
      "##ki": 3543,
      "##oper": 3544,
      "schools": 3545,
      "wrest": 3546,
      "sophomore": 3547,
      "horn": 3548,
      "semi": 3549,
      "##enced": 3550,
      "hay": 3551,
      "father": 3552,
      "window": 3553,
      "facing": 3554,
      "gover": 3555,
      "ped": 3556,
      "##ja": 3557,
      "gall": 3558,
      "ven": 3559,
      "##ering": 3560,
      "##20": 3561,
      "rut": 3562,
      "keeping": 3563,
      "blaz": 3564,
      "marlins": 3565,
      "considering": 3566,
      "##ified": 3567,
      "returns": 3568,
      "release": 3569,
      "##za": 3570,
      "gonz": 3571,
      "##uing": 3572,
      "63": 3573,
      "design": 3574,
      "argent": 3575,
      "##ert": 3576,
      "##ror": 3577,
      "rodgers": 3578,
      "jonathan": 3579,
      "smart": 3580,
      "choice": 3581,
      "silver": 3582,
      "##yer": 3583,
      "appears": 3584,
      "inform": 3585,
      "##bi": 3586,
      "recruiting": 3587,
      "andy": 3588,
      "ce": 3589,
      "##roduced": 3590,
      "interceptions": 3591,
      "const": 3592,
      "size": 3593,
      "nfc": 3594,
      "nashville": 3595,
      "relie": 3596,
      "weight": 3597,
      "prove": 3598,
      "juvent": 3599,
      "lower": 3600,
      "bigger": 3601,
      "##clus": 3602,
      "ly": 3603,
      "juventus": 3604,
      "type": 3605,
      "bright": 3606,
      "brewers": 3607,
      "dj": 3608,
      "beck": 3609,
      "charge": 3610,
      "ker": 3611,
      "##imin": 3612,
      "gard": 3613,
      "tweet": 3614,
      "building": 3615,
      "shown": 3616,
      "butler": 3617,
      "appar": 3618,
      "ren": 3619,
      "##ula": 3620,
      "##bow": 3621,
      "disc": 3622,
      "product": 3623,
      "talented": 3624,
      "ranking": 3625,
      "challeng": 3626,
      "investig": 3627,
      "##cle": 3628,
      "subst": 3629,
      "##bro": 3630,
      "clean": 3631,
      "rick": 3632,
      "pel": 3633,
      "particularly": 3634,
      "qualifying": 3635,
      "angels": 3636,
      "benef": 3637,
      "batting": 3638,
      "poll": 3639,
      "##die": 3640,
      "competitive": 3641,
      "62": 3642,
      "provide": 3643,
      "##iet": 3644,
      "chann": 3645,
      "agreed": 3646,
      "##rey": 3647,
      "spots": 3648,
      "speak": 3649,
      "highlights": 3650,
      "##backs": 3651,
      "##ract": 3652,
      "viol": 3653,
      "elli": 3654,
      "memor": 3655,
      "announce": 3656,
      "##rest": 3657,
      "cousins": 3658,
      "distributed": 3659,
      "danger": 3660,
      "61": 3661,
      "clearly": 3662,
      "necess": 3663,
      "auburn": 3664,
      "pitches": 3665,
      "##wart": 3666,
      "pm": 3667,
      "unfortun": 3668,
      "accom": 3669,
      "capitals": 3670,
      "athlete": 3671,
      "walked": 3672,
      "fellow": 3673,
      "##anned": 3674,
      "scre": 3675,
      "##ened": 3676,
      "relations": 3677,
      "suspension": 3678,
      "##ban": 3679,
      "jimmy": 3680,
      "figh": 3681,
      "winners": 3682,
      "##ample": 3683,
      "##pper": 3684,
      "disappoint": 3685,
      "ire": 3686,
      "toward": 3687,
      "leagues": 3688,
      "sell": 3689,
      "development": 3690,
      "status": 3691,
      "ash": 3692,
      "zach": 3693,
      "##ouse": 3694,
      "facebook": 3695,
      "swing": 3696,
      "extension": 3697,
      "river": 3698,
      "sporting": 3699,
      "hander": 3700,
      "except": 3701,
      "##anny": 3702,
      "memph": 3703,
      "bol": 3704,
      "bucks": 3705,
      "##ceed": 3706,
      "##oenix": 3707,
      "emot": 3708,
      "words": 3709,
      "foul": 3710,
      "sant": 3711,
      "memphis": 3712,
      "extrem": 3713,
      "ny": 3714,
      "kenn": 3715,
      "punch": 3716,
      "joining": 3717,
      "phoenix": 3718,
      "hend": 3719,
      "##mund": 3720,
      "diam": 3721,
      "bud": 3722,
      "selected": 3723,
      "prim": 3724,
      "rivals": 3725,
      "lic": 3726,
      "##ua": 3727,
      "##gn": 3728,
      "##ius": 3729,
      "phillies": 3730,
      "saves": 3731,
      "rev": 3732,
      "achie": 3733,
      "stanley": 3734,
      "orioles": 3735,
      "zeal": 3736,
      "##aded": 3737,
      "##iley": 3738,
      "rhp": 3739,
      "royals": 3740,
      "honest": 3741,
      "watson": 3742,
      "rounds": 3743,
      "grant": 3744,
      "##ani": 3745,
      "flag": 3746,
      "##aged": 3747,
      "problems": 3748,
      "knicks": 3749,
      "includes": 3750,
      "196": 3751,
      "##regor": 3752,
      "incredible": 3753,
      "twins": 3754,
      "##ires": 3755,
      "derby": 3756,
      "##ides": 3757,
      "compl": 3758,
      "carries": 3759,
      "##anced": 3760,
      "academy": 3761,
      "canadian": 3762,
      "diamond": 3763,
      "guardiola": 3764,
      "classic": 3765,
      "defeated": 3766,
      "girls": 3767,
      "scout": 3768,
      "##cum": 3769,
      "union": 3770,
      "pitched": 3771,
      "stands": 3772,
      "races": 3773,
      "mcgregor": 3774,
      "rule": 3775,
      "balls": 3776,
      "##ode": 3777,
      "turnovers": 3778,
      "##cla": 3779,
      "company": 3780,
      "adjust": 3781,
      "podcast": 3782,
      "sanchez": 3783,
      "73": 3784,
      "mexico": 3785,
      "surr": 3786,
      "stopped": 3787,
      "cbs": 3788,
      "copyr": 3789,
      "##rie": 3790,
      "committed": 3791,
      "milan": 3792,
      "copyright": 3793,
      "lake": 3794,
      "coast": 3795,
      "reserved": 3796,
      "include": 3797,
      "critic": 3798,
      "create": 3799,
      "##astic": 3800,
      "evening": 3801,
      "cb": 3802,
      "proud": 3803,
      "cook": 3804,
      "attend": 3805,
      "willing": 3806,
      "previously": 3807,
      "ireland": 3808,
      "entered": 3809,
      "weren": 3810,
      "ble": 3811,
      "comfortable": 3812,
      "address": 3813,
      "account": 3814,
      "fla": 3815,
      "energy": 3816,
      "cool": 3817,
      "##istic": 3818,
      "2021": 3819,
      "villa": 3820,
      "lb": 3821,
      "terri": 3822,
      "##ese": 3823,
      "onto": 3824,
      "##ution": 3825,
      "athletics": 3826,
      "committ": 3827,
      "kir": 3828,
      "calls": 3829,
      "zealand": 3830,
      "trust": 3831,
      "likes": 3832,
      "information": 3833,
      "express": 3834,
      "jar": 3835,
      "runner": 3836,
      "listen": 3837,
      "speaking": 3838,
      "recept": 3839,
      "worse": 3840,
      "switch": 3841,
      "kr": 3842,
      "adams": 3843,
      "honor": 3844,
      "association": 3845,
      "marsh": 3846,
      "##imm": 3847,
      "##sports": 3848,
      "trouble": 3849,
      "hus": 3850,
      "##gress": 3851,
      "paris": 3852,
      "ga": 3853,
      "montreal": 3854,
      "mitchell": 3855,
      "interested": 3856,
      "scen": 3857,
      "spread": 3858,
      "gab": 3859,
      "pirates": 3860,
      "lyn": 3861,
      "##mann": 3862,
      "absolutely": 3863,
      "risk": 3864,
      "pounds": 3865,
      "##cia": 3866,
      "oil": 3867,
      "tiger": 3868,
      "reasons": 3869,
      "jaco": 3870,
      "luke": 3871,
      "wildcats": 3872,
      "heard": 3873,
      "favour": 3874,
      "ultimately": 3875,
      "hitter": 3876,
      "mac": 3877,
      "##cer": 3878,
      "amazing": 3879,
      "descri": 3880,
      "indic": 3881,
      "william": 3882,
      "overs": 3883,
      "danny": 3884,
      "moore": 3885,
      "italy": 3886,
      "becoming": 3887,
      "towards": 3888,
      "74": 3889,
      "##ude": 3890,
      "entering": 3891,
      "hurr": 3892,
      "wrote": 3893,
      "africa": 3894,
      "postp": 3895,
      "##uins": 3896,
      "##lished": 3897,
      "scot": 3898,
      "##hor": 3899,
      "insp": 3900,
      "trick": 3901,
      "##ains": 3902,
      "death": 3903,
      "sad": 3904,
      "##olo": 3905,
      "##itor": 3906,
      "peng": 3907,
      "respons": 3908,
      "leaf": 3909,
      "analy": 3910,
      "doug": 3911,
      "10th": 3912,
      "retired": 3913,
      "revealed": 3914,
      "1st": 3915,
      "gary": 3916,
      "lineman": 3917,
      "stun": 3918,
      "##aud": 3919,
      "elliott": 3920,
      "hart": 3921,
      "lift": 3922,
      "associated": 3923,
      "jacksonville": 3924,
      "higher": 3925,
      "##hab": 3926,
      "##ss": 3927,
      "imag": 3928,
      "completely": 3929,
      "select": 3930,
      "##hi": 3931,
      "sort": 3932,
      "mack": 3933,
      "##old": 3934,
      "##ades": 3935,
      "##px": 3936,
      "2008": 3937,
      "##ario": 3938,
      "##bl": 3939,
      "ka": 3940,
      "talked": 3941,
      "##atory": 3942,
      "##omb": 3943,
      "lind": 3944,
      "##ties": 3945,
      "##ien": 3946,
      "##oned": 3947,
      "committee": 3948,
      "concuss": 3949,
      "display": 3950,
      "hawks": 3951,
      "offers": 3952,
      "names": 3953,
      "defenders": 3954,
      "decisions": 3955,
      "passed": 3956,
      "spect": 3957,
      "route": 3958,
      "performances": 3959,
      "commission": 3960,
      "amount": 3961,
      "##roy": 3962,
      "activ": 3963,
      "struggling": 3964,
      "learned": 3965,
      "sitting": 3966,
      "##ita": 3967,
      "baseman": 3968,
      "kane": 3969,
      "##hawks": 3970,
      "##aster": 3971,
      "##iled": 3972,
      "project": 3973,
      "alexander": 3974,
      "##rac": 3975,
      "dyn": 3976,
      "elig": 3977,
      "2009": 3978,
      "southern": 3979,
      "##rian": 3980,
      "helping": 3981,
      "usc": 3982,
      "rain": 3983,
      "click": 3984,
      "carlos": 3985,
      "marin": 3986,
      "tomor": 3987,
      "individual": 3988,
      "beach": 3989,
      "##cher": 3990,
      "martine": 3991,
      "channel": 3992,
      "##arily": 3993,
      "native": 3994,
      "suns": 3995,
      "##yl": 3996,
      "nets": 3997,
      "penguins": 3998,
      "##iah": 3999,
      "meant": 4000,
      "hat": 4001,
      "ian": 4002,
      "brother": 4003,
      "##ones": 4004,
      "fear": 4005,
      "wish": 4006,
      "district": 4007,
      "##bal": 4008,
      "##eated": 4009,
      "relationship": 4010,
      "##net": 4011,
      "spoke": 4012,
      "welcome": 4013,
      "gal": 4014,
      "typ": 4015,
      "financ": 4016,
      "license": 4017,
      "large": 4018,
      "headed": 4019,
      "source": 4020,
      "##ashed": 4021,
      "occas": 4022,
      "faces": 4023,
      "##raph": 4024,
      "wife": 4025,
      "##arch": 4026,
      "bradley": 4027,
      "##gets": 4028,
      "ucla": 4029,
      "ranks": 4030,
      "send": 4031,
      "alongside": 4032,
      "griffin": 4033,
      "youth": 4034,
      "az": 4035,
      "guess": 4036,
      "cooper": 4037,
      "##dogs": 4038,
      "connect": 4039,
      "tomorrow": 4040,
      "dave": 4041,
      "rating": 4042,
      "roberts": 4043,
      "columbus": 4044,
      "##iro": 4045,
      "pers": 4046,
      "lap": 4047,
      "broken": 4048,
      "ital": 4049,
      "active": 4050,
      "infl": 4051,
      "martinez": 4052,
      "peter": 4053,
      "excellent": 4054,
      "uk": 4055,
      "sor": 4056,
      "incident": 4057,
      "picture": 4058,
      "##ret": 4059,
      "ms": 4060,
      "walks": 4061,
      "buy": 4062,
      "ku": 4063,
      "##ogn": 4064,
      "pitchers": 4065,
      "telev": 4066,
      "executive": 4067,
      "mand": 4068,
      "##omes": 4069,
      "##castle": 4070,
      "gil": 4071,
      "##iest": 4072,
      "pointers": 4073,
      "winger": 4074,
      "##aka": 4075,
      "##uring": 4076,
      "dominant": 4077,
      "blazers": 4078,
      "homers": 4079,
      "fund": 4080,
      "cannot": 4081,
      "clinch": 4082,
      "medical": 4083,
      "##awa": 4084,
      "accept": 4085,
      "##ung": 4086,
      "bruce": 4087,
      "hud": 4088,
      "victor": 4089,
      "dest": 4090,
      "hosts": 4091,
      "##eness": 4092,
      "##string": 4093,
      "pier": 4094,
      "##asing": 4095,
      "sr": 4096,
      "bag": 4097,
      "split": 4098,
      "irish": 4099,
      "seek": 4100,
      "referee": 4101,
      "rodrig": 4102,
      "hamstring": 4103,
      "offered": 4104,
      "baker": 4105,
      "##lley": 4106,
      "##away": 4107,
      "ray": 4108,
      "replace": 4109,
      "##lies": 4110,
      "online": 4111,
      "self": 4112,
      "82": 4113,
      "##uez": 4114,
      "upcoming": 4115,
      "iv": 4116,
      "wonder": 4117,
      "wake": 4118,
      "newcastle": 4119,
      "##nal": 4120,
      "boxing": 4121,
      "traff": 4122,
      "plac": 4123,
      "interception": 4124,
      "exciting": 4125,
      "##elo": 4126,
      "sud": 4127,
      "dort": 4128,
      "##arez": 4129,
      "##ilities": 4130,
      "expectations": 4131,
      "length": 4132,
      "##lyn": 4133,
      "effect": 4134,
      "moun": 4135,
      "##brook": 4136,
      "aggress": 4137,
      "##eph": 4138,
      "skills": 4139,
      "built": 4140,
      "##ias": 4141,
      "unlik": 4142,
      "fixt": 4143,
      "##rup": 4144,
      "claimed": 4145,
      "##alu": 4146,
      "keen": 4147,
      "camer": 4148,
      "85": 4149,
      "calling": 4150,
      "dal": 4151,
      "decade": 4152,
      "deb": 4153,
      "dub": 4154,
      "closed": 4155,
      "scorer": 4156,
      "british": 4157,
      "77": 4158,
      "purs": 4159,
      "penalties": 4160,
      "leafs": 4161,
      "signs": 4162,
      "usually": 4163,
      "cry": 4164,
      "session": 4165,
      "wings": 4166,
      "##ops": 4167,
      "bringing": 4168,
      "trev": 4169,
      "99": 4170,
      "positions": 4171,
      "message": 4172,
      "##iliar": 4173,
      "fred": 4174,
      "##beat": 4175,
      "nl": 4176,
      "absence": 4177,
      "mental": 4178,
      "piece": 4179,
      "henry": 4180,
      "sle": 4181,
      "pu": 4182,
      "extended": 4183,
      "unlikely": 4184,
      "dism": 4185,
      "fle": 4186,
      "secondary": 4187,
      "brief": 4188,
      "upon": 4189,
      "estab": 4190,
      "production": 4191,
      "##fully": 4192,
      "update": 4193,
      "broadcast": 4194,
      "lon": 4195,
      "##pg": 4196,
      "proved": 4197,
      "##jo": 4198,
      "valley": 4199,
      "##ols": 4200,
      "crew": 4201,
      "carter": 4202,
      "##nell": 4203,
      "recall": 4204,
      "admitted": 4205,
      "waiting": 4206,
      "water": 4207,
      "fern": 4208,
      "##dd": 4209,
      "morris": 4210,
      "bab": 4211,
      "jen": 4212,
      "ring": 4213,
      "notes": 4214,
      "donald": 4215,
      "##ker": 4216,
      "##uly": 4217,
      "##gar": 4218,
      "bb": 4219,
      "webs": 4220,
      "catcher": 4221,
      "works": 4222,
      "wwe": 4223,
      "##enger": 4224,
      "##andez": 4225,
      "govern": 4226,
      "ducks": 4227,
      "conver": 4228,
      "safe": 4229,
      "page": 4230,
      "##house": 4231,
      "itself": 4232,
      "fully": 4233,
      "belt": 4234,
      "##more": 4235,
      "bridge": 4236,
      "bea": 4237,
      "##ros": 4238,
      "wimb": 4239,
      "massive": 4240,
      "##ahe": 4241,
      "hero": 4242,
      "##nett": 4243,
      "meaning": 4244,
      "##raft": 4245,
      "bucc": 4246,
      "##board": 4247,
      "cash": 4248,
      "tall": 4249,
      "ident": 4250,
      "slot": 4251,
      "dortmund": 4252,
      "strikeouts": 4253,
      "##nel": 4254,
      "##iling": 4255,
      "##ube": 4256,
      "##iced": 4257,
      "##gary": 4258,
      "yeah": 4259,
      "recogn": 4260,
      "counter": 4261,
      "clock": 4262,
      "palace": 4263,
      "##ify": 4264,
      "example": 4265,
      "evans": 4266,
      "##sa": 4267,
      "extremely": 4268,
      "arrived": 4269,
      "95": 4270,
      "##oti": 4271,
      "unit": 4272,
      "mach": 4273,
      "equal": 4274,
      "##mons": 4275,
      "weak": 4276,
      "easily": 4277,
      "tickets": 4278,
      "2nd": 4279,
      "isa": 4280,
      "defic": 4281,
      "padres": 4282,
      "##ises": 4283,
      "miles": 4284,
      "harper": 4285,
      "advance": 4286,
      "hern": 4287,
      "journal": 4288,
      "path": 4289,
      "watched": 4290,
      "officially": 4291,
      "##ouri": 4292,
      "lab": 4293,
      "standings": 4294,
      "nobody": 4295,
      "meas": 4296,
      "blake": 4297,
      "focused": 4298,
      "buccane": 4299,
      "victories": 4300,
      "wade": 4301,
      "ventures": 4302,
      "opin": 4303,
      "finding": 4304,
      "capital": 4305,
      "pap": 4306,
      "masters": 4307,
      "jere": 4308,
      "aj": 4309,
      "ones": 4310,
      "lines": 4311,
      "reporting": 4312,
      "charles": 4313,
      "##rik": 4314,
      "harden": 4315,
      "serve": 4316,
      "##eel": 4317,
      "hang": 4318,
      "subscribe": 4319,
      "records": 4320,
      "mock": 4321,
      "agents": 4322,
      "capable": 4323,
      "fab": 4324,
      "agreement": 4325,
      "##ushing": 4326,
      "disp": 4327,
      "consistent": 4328,
      "lightning": 4329,
      "attacking": 4330,
      "fights": 4331,
      "##ateg": 4332,
      "cat": 4333,
      "hey": 4334,
      "weather": 4335,
      "##erland": 4336,
      "conte": 4337,
      "forget": 4338,
      "##ointing": 4339,
      "northw": 4340,
      "78": 4341,
      "bank": 4342,
      "##now": 4343,
      "majors": 4344,
      "buccaneers": 4345,
      "marc": 4346,
      "wimbled": 4347,
      "ta": 4348,
      "aud": 4349,
      "slid": 4350,
      "slight": 4351,
      "born": 4352,
      "gradu": 4353,
      "wimbledon": 4354,
      "yester": 4355,
      "clay": 4356,
      "##cott": 4357,
      "website": 4358,
      "reserve": 4359,
      "##ardo": 4360,
      "combine": 4361,
      "swed": 4362,
      "pra": 4363,
      "ens": 4364,
      "tests": 4365,
      "carr": 4366,
      "belg": 4367,
      "sweep": 4368,
      "##gi": 4369,
      "eyes": 4370,
      "potentially": 4371,
      "gain": 4372,
      "cro": 4373,
      "word": 4374,
      "collins": 4375,
      "##istan": 4376,
      "highly": 4377,
      "younger": 4378,
      "receive": 4379,
      "jes": 4380,
      "##of": 4381,
      "spanish": 4382,
      "created": 4383,
      "silva": 4384,
      "##ault": 4385,
      "highlight": 4386,
      "yesterday": 4387,
      "tan": 4388,
      "steven": 4389,
      "saint": 4390,
      "reproduced": 4391,
      "histor": 4392,
      "brooks": 4393,
      "ner": 4394,
      "recorded": 4395,
      "sha": 4396,
      "china": 4397,
      "recruit": 4398,
      "81": 4399,
      "standing": 4400,
      "trump": 4401,
      "soft": 4402,
      "##game": 4403,
      "superst": 4404,
      "maintain": 4405,
      "accompl": 4406,
      "bern": 4407,
      "##bel": 4408,
      "hurrican": 4409,
      "concussion": 4410,
      "bund": 4411,
      "##ject": 4412,
      "ford": 4413,
      "##aga": 4414,
      "hurricanes": 4415,
      "syrac": 4416,
      "syracuse": 4417,
      "05": 4418,
      "400": 4419,
      "unfortunately": 4420,
      "nelson": 4421,
      "##cted": 4422,
      "ticket": 4423,
      "mostly": 4424,
      "mariners": 4425,
      "pep": 4426,
      "91": 4427,
      "##me": 4428,
      "familiar": 4429,
      "##avier": 4430,
      "##reci": 4431,
      "alone": 4432,
      "relief": 4433,
      "ful": 4434,
      "replaced": 4435,
      "300": 4436,
      "mos": 4437,
      "##uc": 4438,
      "boost": 4439,
      "baylor": 4440,
      "##load": 4441,
      "turning": 4442,
      "section": 4443,
      "linked": 4444,
      "disappointing": 4445,
      "stock": 4446,
      "guarante": 4447,
      "shared": 4448,
      "88": 4449,
      "dere": 4450,
      "##izing": 4451,
      "dw": 4452,
      "##oyd": 4453,
      "demand": 4454,
      "rodriguez": 4455,
      "##bell": 4456,
      "nad": 4457,
      "##mend": 4458,
      "momentum": 4459,
      "oilers": 4460,
      "capt": 4461,
      "harry": 4462,
      "supposed": 4463,
      "jazz": 4464,
      "portug": 4465,
      "##ience": 4466,
      "surprised": 4467,
      "clark": 4468,
      "remind": 4469,
      "brill": 4470,
      "seeded": 4471,
      "yout": 4472,
      "concerns": 4473,
      "shaw": 4474,
      "pushed": 4475,
      "spend": 4476,
      "negoti": 4477,
      "##uggets": 4478,
      "stanford": 4479,
      "firm": 4480,
      "southampton": 4481,
      "##fo": 4482,
      "sex": 4483,
      "wales": 4484,
      "mountain": 4485,
      "wid": 4486,
      "vote": 4487,
      "2007": 4488,
      "rash": 4489,
      "##bour": 4490,
      "financial": 4491,
      "nar": 4492,
      "nuggets": 4493,
      "rat": 4494,
      "figures": 4495,
      "dynam": 4496,
      "normal": 4497,
      "offens": 4498,
      "si": 4499,
      "##gu": 4500,
      "laugh": 4501,
      "chair": 4502,
      "wenger": 4503,
      "crown": 4504,
      "##opp": 4505,
      "possibility": 4506,
      "bos": 4507,
      "92": 4508,
      "79": 4509,
      "hosp": 4510,
      "luis": 4511,
      "mississ": 4512,
      "turner": 4513,
      "##inois": 4514,
      "##ichick": 4515,
      "irving": 4516,
      "surv": 4517,
      "holes": 4518,
      "kore": 4519,
      "amid": 4520,
      "peters": 4521,
      "argentina": 4522,
      "setting": 4523,
      "separ": 4524,
      "brings": 4525,
      "sets": 4526,
      "illinois": 4527,
      "details": 4528,
      "ole": 4529,
      "joseph": 4530,
      "tested": 4531,
      "doubles": 4532,
      "site": 4533,
      "neither": 4534,
      "obs": 4535,
      "##lement": 4536,
      "direction": 4537,
      "reed": 4538,
      "nav": 4539,
      "driving": 4540,
      "grade": 4541,
      "entertain": 4542,
      "wearing": 4543,
      "growing": 4544,
      "knights": 4545,
      "judge": 4546,
      "munich": 4547,
      "dh": 4548,
      "unable": 4549,
      "westbrook": 4550,
      "thrown": 4551,
      "fitz": 4552,
      "##fa": 4553,
      "region": 4554,
      "encour": 4555,
      "condition": 4556,
      "snaps": 4557,
      "tradition": 4558,
      "bark": 4559,
      "appreci": 4560,
      "retirement": 4561,
      "##rop": 4562,
      "crazy": 4563,
      "##ya": 4564,
      "harrison": 4565,
      "specific": 4566,
      "beckham": 4567,
      "listed": 4568,
      "belichick": 4569,
      "##onse": 4570,
      "knocked": 4571,
      "photos": 4572,
      "replacement": 4573,
      "ott": 4574,
      "##umble": 4575,
      "secure": 4576,
      "##bit": 4577,
      "nik": 4578,
      "decide": 4579,
      "##ration": 4580,
      "##hill": 4581,
      "83": 4582,
      "factor": 4583,
      "emplo": 4584,
      "pere": 4585,
      "plat": 4586,
      "goalie": 4587,
      "##la": 4588,
      "bases": 4589,
      "fantastic": 4590,
      "mistakes": 4591,
      "##ares": 4592,
      "gym": 4593,
      "##cy": 4594,
      "clar": 4595,
      "86": 4596,
      "84": 4597,
      "celtic": 4598,
      "margin": 4599,
      "pointer": 4600,
      "##ouver": 4601,
      "ess": 4602,
      "rockies": 4603,
      "##ymar": 4604,
      "derek": 4605,
      "struggles": 4606,
      "psg": 4607,
      "vanc": 4608,
      "truly": 4609,
      "neymar": 4610,
      "math": 4611,
      "bour": 4612,
      "##ippi": 4613,
      "bub": 4614,
      "cult": 4615,
      "transition": 4616,
      "student": 4617,
      "thoughts": 4618,
      "bulldogs": 4619,
      "atlet": 4620,
      "mr": 4621,
      "##essed": 4622,
      "natur": 4623,
      "presence": 4624,
      "defenseman": 4625,
      "acquired": 4626,
      "anal": 4627,
      "pacers": 4628,
      "map": 4629,
      "service": 4630,
      "vancouver": 4631,
      "mck": 4632,
      "god": 4633,
      "agree": 4634,
      "drivers": 4635,
      "semifinals": 4636,
      "mississippi": 4637,
      "gas": 4638,
      "helm": 4639,
      "begins": 4640,
      "dak": 4641,
      "tend": 4642,
      "wolves": 4643,
      "##wich": 4644,
      "##standing": 4645,
      "federer": 4646,
      "singles": 4647,
      "simple": 4648,
      "ruled": 4649,
      "##bing": 4650,
      "##ira": 4651,
      "supporters": 4652,
      "youtube": 4653,
      "featured": 4654,
      "maur": 4655,
      "env": 4656,
      "deficit": 4657,
      "charac": 4658,
      "tip": 4659,
      "sudden": 4660,
      "todd": 4661,
      "email": 4662,
      "flyers": 4663,
      "bonus": 4664,
      "sher": 4665,
      "unbeat": 4666,
      "##due": 4667,
      "hell": 4668,
      "film": 4669,
      "contro": 4670,
      "quarterf": 4671,
      "98": 4672,
      "search": 4673,
      "cancel": 4674,
      "rehab": 4675,
      "prepare": 4676,
      "annual": 4677,
      "semifinal": 4678,
      "motiv": 4679,
      "rivers": 4680,
      "jur": 4681,
      "##wor": 4682,
      "prepared": 4683,
      "87": 4684,
      "lig": 4685,
      "89": 4686,
      "por": 4687,
      "##essions": 4688,
      "experienced": 4689,
      "gloves": 4690,
      "tro": 4691,
      "il": 4692,
      "simmons": 4693,
      "ald": 4694,
      "##esl": 4695,
      "aim": 4696,
      "leaves": 4697,
      "snap": 4698,
      "nic": 4699,
      "releg": 4700,
      "shouldn": 4701,
      "falling": 4702,
      "blocks": 4703,
      "turns": 4704,
      "##nar": 4705,
      "elbow": 4706,
      "controvers": 4707,
      "ru": 4708,
      "djok": 4709,
      "dangerous": 4710,
      "##anton": 4711,
      "garcia": 4712,
      "##ager": 4713,
      "liga": 4714,
      "pist": 4715,
      "targets": 4716,
      "longest": 4717,
      "delay": 4718,
      "##gba": 4719,
      "##umn": 4720,
      "##gio": 4721,
      "distance": 4722,
      "##oping": 4723,
      "steal": 4724,
      "gib": 4725,
      "##oz": 4726,
      "popular": 4727,
      "tries": 4728,
      "launch": 4729,
      "compared": 4730,
      "lad": 4731,
      "##monton": 4732,
      "djokovic": 4733,
      "##ura": 4734,
      "aggressive": 4735,
      "11th": 4736,
      "93": 4737,
      "diamondbacks": 4738,
      "competing": 4739,
      "holds": 4740,
      "evalu": 4741,
      "possibly": 4742,
      "conversation": 4743,
      "protect": 4744,
      "edmonton": 4745,
      "morgan": 4746,
      "formula": 4747,
      "esc": 4748,
      "##eme": 4749,
      "##egr": 4750,
      "##stal": 4751,
      "ry": 4752,
      "apart": 4753,
      "prevent": 4754,
      "meetings": 4755,
      "##icans": 4756,
      "rally": 4757,
      "##aine": 4758,
      "perform": 4759,
      "alb": 4760,
      "thinks": 4761,
      "treat": 4762,
      "spell": 4763,
      "trevor": 4764,
      "travis": 4765,
      "enjoyed": 4766,
      "##stop": 4767,
      "lives": 4768,
      "italian": 4769,
      "effic": 4770,
      "2006": 4771,
      "virt": 4772,
      "dust": 4773,
      "cause": 4774,
      "##vey": 4775,
      "department": 4776,
      "tra": 4777,
      "hospital": 4778,
      "om": 4779,
      "door": 4780,
      "##ahan": 4781,
      "ib": 4782,
      "94": 4783,
      "valu": 4784,
      "shift": 4785,
      "wra": 4786,
      "haz": 4787,
      "rebu": 4788,
      "ark": 4789,
      "response": 4790,
      "mistake": 4791,
      "##aska": 4792,
      "lane": 4793,
      "sale": 4794,
      "parker": 4795,
      "##phy": 4796,
      "rumors": 4797,
      "commitment": 4798,
      "crist": 4799,
      "gotten": 4800,
      "handle": 4801,
      "russian": 4802,
      "spin": 4803,
      "served": 4804,
      "##iens": 4805,
      "##lines": 4806,
      "cere": 4807,
      "brooklyn": 4808,
      "mob": 4809,
      "##ding": 4810,
      "remained": 4811,
      "drill": 4812,
      "##rizz": 4813,
      "calgary": 4814,
      "analys": 4815,
      "##ancing": 4816,
      "rub": 4817,
      "##ched": 4818,
      "96": 4819,
      "reven": 4820,
      "connor": 4821,
      "outfielder": 4822,
      "celebrates": 4823,
      "author": 4824,
      "##alen": 4825,
      "bout": 4826,
      "stories": 4827,
      "97": 4828,
      "wear": 4829,
      "apparently": 4830,
      "spir": 4831,
      "nadal": 4832,
      "sharks": 4833,
      "partners": 4834,
      "##kn": 4835,
      "situations": 4836,
      "wright": 4837,
      "maver": 4838,
      "sold": 4839,
      "died": 4840,
      "mahomes": 4841,
      "stewart": 4842,
      "conced": 4843,
      "runners": 4844,
      "celebrate": 4845,
      "##che": 4846,
      "buzz": 4847,
      "prediction": 4848,
      "chap": 4849,
      "beaten": 4850,
      "spons": 4851,
      "postponed": 4852,
      "dad": 4853,
      "##bury": 4854,
      "sens": 4855,
      "picking": 4856,
      "feature": 4857,
      "tommy": 4858,
      "flight": 4859,
      "striking": 4860,
      "worry": 4861,
      "##illa": 4862,
      "pelicans": 4863,
      "bang": 4864,
      "##wise": 4865,
      "na": 4866,
      "##aro": 4867,
      "optim": 4868,
      "epis": 4869,
      "testing": 4870,
      "partner": 4871,
      "europa": 4872,
      "2000": 4873,
      "3rd": 4874,
      "birth": 4875,
      "cameron": 4876,
      "sideline": 4877,
      "unbeaten": 4878,
      "quiet": 4879,
      "whom": 4880,
      "carson": 4881,
      "##ih": 4882,
      "fewer": 4883,
      "surround": 4884,
      "##nold": 4885,
      "##itude": 4886,
      "##hib": 4887,
      "recovery": 4888,
      "responded": 4889,
      "ack": 4890,
      "desper": 4891,
      "##tz": 4892,
      "grizz": 4893,
      "balance": 4894,
      "goalt": 4895,
      "puts": 4896,
      "purdue": 4897,
      "##ived": 4898,
      "##antic": 4899,
      "iii": 4900,
      "garrett": 4901,
      "bye": 4902,
      "northern": 4903,
      "earning": 4904,
      "gap": 4905,
      "steals": 4906,
      "sust": 4907,
      "##ously": 4908,
      "effective": 4909,
      "image": 4910,
      "stayed": 4911,
      "##aging": 4912,
      "indy": 4913,
      "tier": 4914,
      "##pr": 4915,
      "television": 4916,
      "log": 4917,
      "lucas": 4918,
      "drag": 4919,
      "conditions": 4920,
      "helps": 4921,
      "versat": 4922,
      "atletico": 4923,
      "stepped": 4924,
      "kam": 4925,
      "##ipe": 4926,
      "punt": 4927,
      "kickoff": 4928,
      "elimin": 4929,
      "achieve": 4930,
      "agg": 4931,
      "madison": 4932,
      "reid": 4933,
      "please": 4934,
      "produced": 4935,
      "fortun": 4936,
      "lang": 4937,
      "##ela": 4938,
      "impressed": 4939,
      "guaranteed": 4940,
      "learning": 4941,
      "beaut": 4942,
      "##rence": 4943,
      "staying": 4944,
      "##thy": 4945,
      "##amento": 4946,
      "tun": 4947,
      "brazilian": 4948,
      "commissioner": 4949,
      "leadership": 4950,
      "kobe": 4951,
      "ward": 4952,
      "sacr": 4953,
      "finale": 4954,
      "spart": 4955,
      "missouri": 4956,
      "children": 4957,
      "edwards": 4958,
      "brett": 4959,
      "thrill": 4960,
      "roger": 4961,
      "henderson": 4962,
      "##acle": 4963,
      "##ington": 4964,
      "substit": 4965,
      "analysis": 4966,
      "##uth": 4967,
      "corey": 4968,
      "195": 4969,
      "adrian": 4970,
      "pistons": 4971,
      "imm": 4972,
      "hunt": 4973,
      "flames": 4974,
      "hook": 4975,
      "infield": 4976,
      "scoreless": 4977,
      "hunter": 4978,
      "apolog": 4979,
      "islanders": 4980,
      "##mas": 4981,
      "profile": 4982,
      "shape": 4983,
      "aston": 4984,
      "spending": 4985,
      "stood": 4986,
      "##iron": 4987,
      "management": 4988,
      "root": 4989,
      "receptions": 4990,
      "craig": 4991,
      "toss": 4992,
      "spark": 4993,
      "closing": 4994,
      "hernandez": 4995,
      "easier": 4996,
      "dominated": 4997,
      "drove": 4998,
      "##otes": 4999,
      "lac": 5000,
      "asking": 5001,
      "##sters": 5002,
      "murphy": 5003,
      "##unt": 5004,
      "##hol": 5005,
      "canadiens": 5006,
      "##pa": 5007,
      "jok": 5008,
      "uns": 5009,
      "##ped": 5010,
      "##agn": 5011,
      "##enson": 5012,
      "anybody": 5013,
      "caps": 5014,
      "prime": 5015,
      "sav": 5016,
      "sacramento": 5017,
      "task": 5018,
      "##iaz": 5019,
      "orange": 5020,
      "contracts": 5021,
      "solo": 5022,
      "##atively": 5023,
      "telling": 5024,
      "fought": 5025,
      "outstanding": 5026,
      "fis": 5027,
      "merced": 5028,
      "pogba": 5029,
      "hired": 5030,
      "##eb": 5031,
      "dunk": 5032,
      "mic": 5033,
      "deals": 5034,
      "fighter": 5035,
      "refle": 5036,
      "##yton": 5037,
      "rbis": 5038,
      "brilliant": 5039,
      "priv": 5040,
      "living": 5041,
      "husk": 5042,
      "deg": 5043,
      "exch": 5044,
      "data": 5045,
      "kim": 5046,
      "sources": 5047,
      "crystal": 5048,
      "rebuild": 5049,
      "heavyweight": 5050,
      "mcd": 5051,
      "##ption": 5052,
      "unif": 5053,
      "rare": 5054,
      "arkansas": 5055,
      "northwestern": 5056,
      "##efa": 5057,
      "regional": 5058,
      "##uted": 5059,
      "##ening": 5060,
      "salah": 5061,
      "nebr": 5062,
      "ali": 5063,
      "cavs": 5064,
      "projected": 5065,
      "mason": 5066,
      "warm": 5067,
      "hornets": 5068,
      "terry": 5069,
      "defensively": 5070,
      "pin": 5071,
      "##going": 5072,
      "cab": 5073,
      "prefer": 5074,
      "dealing": 5075,
      "mu": 5076,
      "appeal": 5077,
      "fastball": 5078,
      "kirk": 5079,
      "heads": 5080,
      "scouting": 5081,
      "2004": 5082,
      "pool": 5083,
      "investigation": 5084,
      "polic": 5085,
      "valuable": 5086,
      "knowing": 5087,
      "jared": 5088,
      "nebraska": 5089,
      "##ctor": 5090,
      "ottawa": 5091,
      "common": 5092,
      "phone": 5093,
      "swim": 5094,
      "vin": 5095,
      "##oa": 5096,
      "rud": 5097,
      "redu": 5098,
      "grizzlies": 5099,
      "claims": 5100,
      "##sn": 5101,
      "shortstop": 5102,
      "trading": 5103,
      "##nowled": 5104,
      "##han": 5105,
      "mother": 5106,
      "majority": 5107,
      "##oved": 5108,
      "crucial": 5109,
      "campus": 5110,
      "winn": 5111,
      "competitions": 5112,
      "##onk": 5113,
      "imagine": 5114,
      "##dale": 5115,
      "lop": 5116,
      "proper": 5117,
      "ferr": 5118,
      "services": 5119,
      "acknowled": 5120,
      "kicks": 5121,
      "##ublic": 5122,
      "volley": 5123,
      "12th": 5124,
      "dut": 5125,
      "party": 5126,
      "asp": 5127,
      "noted": 5128,
      "trainer": 5129,
      "character": 5130,
      "opinion": 5131,
      "kaep": 5132,
      "unless": 5133,
      "logan": 5134,
      "efforts": 5135,
      "##imum": 5136,
      "dismiss": 5137,
      "mavericks": 5138,
      "##andre": 5139,
      "##aments": 5140,
      "explained": 5141,
      "coached": 5142,
      "##ste": 5143,
      "##ernick": 5144,
      "outing": 5145,
      "uefa": 5146,
      "bundesl": 5147,
      "believed": 5148,
      "contend": 5149,
      "shirt": 5150,
      "##riel": 5151,
      "movement": 5152,
      "writer": 5153,
      "height": 5154,
      "reality": 5155,
      "eth": 5156,
      "lamar": 5157,
      "##omed": 5158,
      "mercedes": 5159,
      "##eline": 5160,
      "ster": 5161,
      "required": 5162,
      "arrest": 5163,
      "##icip": 5164,
      "sixers": 5165,
      "eligible": 5166,
      "##uster": 5167,
      "standard": 5168,
      "downs": 5169,
      "##mark": 5170,
      "cris": 5171,
      "##acher": 5172,
      "contender": 5173,
      "kaepernick": 5174,
      "jerry": 5175,
      "##hand": 5176,
      "##uters": 5177,
      "bundesliga": 5178,
      "regardless": 5179,
      "candidate": 5180,
      "correct": 5181,
      "updates": 5182,
      "advanced": 5183,
      "##zer": 5184,
      "becomes": 5185,
      "kel": 5186,
      "##quez": 5187,
      "determined": 5188,
      "feed": 5189,
      "keeps": 5190,
      "crash": 5191,
      "##imate": 5192,
      "yellow": 5193,
      "reaction": 5194,
      "sidelined": 5195,
      "blackhawks": 5196,
      "bobby": 5197,
      "restrict": 5198,
      "suit": 5199,
      "jeremy": 5200,
      "##ees": 5201,
      "sb": 5202,
      "usual": 5203,
      "discip": 5204,
      "additional": 5205,
      "cath": 5206,
      "canucks": 5207,
      "##ando": 5208,
      "##isted": 5209,
      "##reek": 5210,
      "resume": 5211,
      "domest": 5212,
      "decent": 5213,
      "wrestling": 5214,
      "rise": 5215,
      "forwards": 5216,
      "##iev": 5217,
      "conduct": 5218,
      "stam": 5219,
      "##acked": 5220,
      "friendly": 5221,
      "walking": 5222,
      "cou": 5223,
      "mentioned": 5224,
      "joel": 5225,
      "blood": 5226,
      "buckey": 5227,
      "76ers": 5228,
      "##ito": 5229,
      "##iment": 5230,
      "republic": 5231,
      "analyst": 5232,
      "reliever": 5233,
      "##mo": 5234,
      "##rif": 5235,
      "##ining": 5236,
      "##alez": 5237,
      "serie": 5238,
      "remark": 5239,
      "##berger": 5240,
      "announcement": 5241,
      "playm": 5242,
      "bucs": 5243,
      "pas": 5244,
      "marshall": 5245,
      "memorial": 5246,
      "fash": 5247,
      "tee": 5248,
      "regarding": 5249,
      "essent": 5250,
      "##nt": 5251,
      "sharp": 5252,
      "pow": 5253,
      "batters": 5254,
      "##lad": 5255,
      "conor": 5256,
      "##iles": 5257,
      "graham": 5258,
      "lynch": 5259,
      "surprising": 5260,
      "bounce": 5261,
      "um": 5262,
      "demar": 5263,
      "scotland": 5264,
      "wag": 5265,
      "##iable": 5266,
      "cf": 5267,
      "tat": 5268,
      "purp": 5269,
      "matthews": 5270,
      "exit": 5271,
      "lav": 5272,
      "breaks": 5273,
      "perez": 5274,
      "wentz": 5275,
      "improvement": 5276,
      "limit": 5277,
      "influ": 5278,
      "watford": 5279,
      "fashion": 5280,
      "rusher": 5281,
      "scrimm": 5282,
      "nations": 5283,
      "roma": 5284,
      "doping": 5285,
      "lif": 5286,
      "landed": 5287,
      "eddie": 5288,
      "dayton": 5289,
      "hitters": 5290,
      "extend": 5291,
      "mcl": 5292,
      "gray": 5293,
      "##conn": 5294,
      "mound": 5295,
      "gur": 5296,
      "barkley": 5297,
      "jalen": 5298,
      "campbell": 5299,
      "wayne": 5300,
      "forest": 5301,
      "pride": 5302,
      "2005": 5303,
      "##umph": 5304,
      "editing": 5305,
      "##mit": 5306,
      "sees": 5307,
      "##ala": 5308,
      "woman": 5309,
      "gonna": 5310,
      "larry": 5311,
      "practices": 5312,
      "argu": 5313,
      "initially": 5314,
      "jacob": 5315,
      "passer": 5316,
      "anthem": 5317,
      "f1": 5318,
      "##essing": 5319,
      "initial": 5320,
      "##haw": 5321,
      "bryce": 5322,
      "reuters": 5323,
      "garden": 5324,
      "drives": 5325,
      "craw": 5326,
      "ak": 5327,
      "frame": 5328,
      "damage": 5329,
      "changing": 5330,
      "fol": 5331,
      "##emen": 5332,
      "superstar": 5333,
      "mandatory": 5334,
      "lucky": 5335,
      "happening": 5336,
      "daugh": 5337,
      "sleep": 5338,
      "gonzalez": 5339,
      "fielder": 5340,
      "trafford": 5341,
      "org": 5342,
      "##eed": 5343,
      "cases": 5344,
      "reading": 5345,
      "promotion": 5346,
      "assign": 5347,
      "hugh": 5348,
      "yourself": 5349,
      "jamie": 5350,
      "arguably": 5351,
      "raised": 5352,
      "##rera": 5353,
      "pierre": 5354,
      "pen": 5355,
      "luk": 5356,
      "jackets": 5357,
      "drug": 5358,
      "sergio": 5359,
      "fumble": 5360,
      "caused": 5361,
      "marqu": 5362,
      "vander": 5363,
      "programs": 5364,
      "lion": 5365,
      "##jected": 5366,
      "grud": 5367,
      "students": 5368,
      "otherwise": 5369,
      "laps": 5370,
      "hr": 5371,
      "places": 5372,
      "categ": 5373,
      "shan": 5374,
      "pak": 5375,
      "evid": 5376,
      "aware": 5377,
      "unique": 5378,
      "##itten": 5379,
      "##gate": 5380,
      "flow": 5381,
      "upper": 5382,
      "catching": 5383,
      "domestic": 5384,
      "##rupt": 5385,
      "##right": 5386,
      "colin": 5387,
      "suffering": 5388,
      "prix": 5389,
      "statist": 5390,
      "nur": 5391,
      "notice": 5392,
      "##eta": 5393,
      "##unk": 5394,
      "##mill": 5395,
      "swan": 5396,
      "weigh": 5397,
      "nj": 5398,
      "disappointed": 5399,
      "##rit": 5400,
      "##nis": 5401,
      "opposing": 5402,
      "##ii": 5403,
      "zero": 5404,
      "concerned": 5405,
      "bunch": 5406,
      "##weather": 5407,
      "cold": 5408,
      "carried": 5409,
      "tournaments": 5410,
      "troy": 5411,
      "register": 5412,
      "##olic": 5413,
      "predators": 5414,
      "##apped": 5415,
      "constant": 5416,
      "daw": 5417,
      "vac": 5418,
      "quinn": 5419,
      "fow": 5420,
      "johnny": 5421,
      "explos": 5422,
      "##uf": 5423,
      "seemingly": 5424,
      "kerr": 5425,
      "personnel": 5426,
      "##how": 5427,
      "anticip": 5428,
      "rushed": 5429,
      "aside": 5430,
      "cros": 5431,
      "street": 5432,
      "##gus": 5433,
      "##ania": 5434,
      "delivered": 5435,
      "sterling": 5436,
      "##iding": 5437,
      "luc": 5438,
      "##tered": 5439,
      "winston": 5440,
      "raf": 5441,
      "horse": 5442,
      "blocked": 5443,
      "cout": 5444,
      "bart": 5445,
      "dug": 5446,
      "mayfield": 5447,
      "##iors": 5448,
      "triumph": 5449,
      "somebody": 5450,
      "turnover": 5451,
      "carroll": 5452,
      "sweden": 5453,
      "##iana": 5454,
      "passion": 5455,
      "americans": 5456,
      "##llar": 5457,
      "respectively": 5458,
      "dl": 5459,
      "##sen": 5460,
      "isaiah": 5461,
      "unp": 5462,
      "##bon": 5463,
      "chip": 5464,
      "##lands": 5465,
      "awards": 5466,
      "tying": 5467,
      "congr": 5468,
      "snow": 5469,
      "obser": 5470,
      "diaz": 5471,
      "dropping": 5472,
      "holl": 5473,
      "##ores": 5474,
      "ign": 5475,
      "square": 5476,
      "alv": 5477,
      "##tery": 5478,
      "cleared": 5479,
      "thus": 5480,
      "##ague": 5481,
      "nich": 5482,
      "##ipping": 5483,
      "##ardy": 5484,
      "tds": 5485,
      "mik": 5486,
      "##adow": 5487,
      "##ification": 5488,
      "les": 5489,
      "##vens": 5490,
      "nate": 5491,
      "wheel": 5492,
      "prepar": 5493,
      "prescott": 5494,
      "visitors": 5495,
      "shortly": 5496,
      "lawrence": 5497,
      "##ograph": 5498,
      "germ": 5499,
      "jum": 5500,
      "kicker": 5501,
      "##eys": 5502,
      "storm": 5503,
      "##aa": 5504,
      "##isman": 5505,
      "##aheim": 5506,
      "century": 5507,
      "bennett": 5508,
      "##erc": 5509,
      "legs": 5510,
      "grew": 5511,
      "vice": 5512,
      "benefit": 5513,
      "##vert": 5514,
      "falls": 5515,
      "##uit": 5516,
      "##eas": 5517,
      "##ument": 5518,
      "costa": 5519,
      "phillips": 5520,
      "alleged": 5521,
      "13th": 5522,
      "bear": 5523,
      "rutgers": 5524,
      "wire": 5525,
      "atlantic": 5526,
      "joey": 5527,
      "##iser": 5528,
      "##ato": 5529,
      "##olas": 5530,
      "##yth": 5531,
      "wolver": 5532,
      "4th": 5533,
      "##ulk": 5534,
      "##ashing": 5535,
      "##oming": 5536,
      "##iber": 5537,
      "ace": 5538,
      "anaheim": 5539,
      "screen": 5540,
      "mcil": 5541,
      "compar": 5542,
      "harb": 5543,
      "uconn": 5544,
      "##bourne": 5545,
      "euro": 5546,
      "filled": 5547,
      "floyd": 5548,
      "##iger": 5549,
      "##aku": 5550,
      "areas": 5551,
      "##las": 5552,
      "cody": 5553,
      "episode": 5554,
      "uncertain": 5555,
      "larg": 5556,
      "features": 5557,
      "emotional": 5558,
      "communic": 5559,
      "basically": 5560,
      "culture": 5561,
      "##25": 5562,
      "model": 5563,
      "ja": 5564,
      "matters": 5565,
      "government": 5566,
      "princ": 5567,
      "sweet": 5568,
      "elsewhere": 5569,
      "rivalry": 5570,
      "kaw": 5571,
      "denied": 5572,
      "tact": 5573,
      "cards": 5574,
      "suggested": 5575,
      "journey": 5576,
      "nathan": 5577,
      "doz": 5578,
      "surf": 5579,
      "departure": 5580,
      "torn": 5581,
      "bourn": 5582,
      "parents": 5583,
      "##onso": 5584,
      "polit": 5585,
      "seat": 5586,
      "lor": 5587,
      "hip": 5588,
      "boge": 5589,
      "mccar": 5590,
      "struggle": 5591,
      "joshua": 5592,
      "knockout": 5593,
      "charlie": 5594,
      "##apoli": 5595,
      "scrimmage": 5596,
      "hadn": 5597,
      "maple": 5598,
      "error": 5599,
      "##illy": 5600,
      "trent": 5601,
      "xavier": 5602,
      "##urt": 5603,
      "rein": 5604,
      "##oul": 5605,
      "consistently": 5606,
      "##mony": 5607,
      "chart": 5608,
      "anyway": 5609,
      "##ox": 5610,
      "09": 5611,
      "##urity": 5612,
      "immediate": 5613,
      "##eted": 5614,
      "largely": 5615,
      "juan": 5616,
      "##ele": 5617,
      "##ims": 5618,
      "err": 5619,
      "coy": 5620,
      "version": 5621,
      "derrick": 5622,
      "##iem": 5623,
      "##using": 5624,
      "joins": 5625,
      "steps": 5626,
      "cycl": 5627,
      "technical": 5628,
      "##ours": 5629,
      "napoli": 5630,
      "empty": 5631,
      "senators": 5632,
      "yah": 5633,
      "##tr": 5634,
      "refer": 5635,
      "jurgen": 5636,
      "##edy": 5637,
      "##0s": 5638,
      "cristiano": 5639,
      "text": 5640,
      "ultimate": 5641,
      "##olves": 5642,
      "dram": 5643,
      "ride": 5644,
      "links": 5645,
      "reaching": 5646,
      "gronk": 5647,
      "proven": 5648,
      "##idents": 5649,
      "huskies": 5650,
      "##emouth": 5651,
      "veterans": 5652,
      "access": 5653,
      "charged": 5654,
      "bed": 5655,
      "enc": 5656,
      "2003": 5657,
      "##eland": 5658,
      "01": 5659,
      "tax": 5660,
      "faith": 5661,
      "##eshow": 5662,
      "reporter": 5663,
      "combination": 5664,
      "brom": 5665,
      "necessary": 5666,
      "pushing": 5667,
      "dill": 5668,
      "betting": 5669,
      "accur": 5670,
      "ded": 5671,
      "scheme": 5672,
      "busch": 5673,
      "mate": 5674,
      "gruden": 5675,
      "##aries": 5676,
      "bryan": 5677,
      "heavily": 5678,
      "##hold": 5679,
      "marks": 5680,
      "mobile": 5681,
      "bournemouth": 5682,
      "ourselves": 5683,
      "dt": 5684,
      "korea": 5685,
      "tcu": 5686,
      "anfield": 5687,
      "christmas": 5688,
      "defenses": 5689,
      "hund": 5690,
      "coleman": 5691,
      "tremend": 5692,
      "##immer": 5693,
      "wicket": 5694,
      "ted": 5695,
      "smo": 5696,
      "undef": 5697,
      "guards": 5698,
      "imposs": 5699,
      "raw": 5700,
      "minds": 5701,
      "##ipeg": 5702,
      "rematch": 5703,
      "loaded": 5704,
      "sne": 5705,
      "duo": 5706,
      "winnipeg": 5707,
      "08": 5708,
      "exclus": 5709,
      "older": 5710,
      "kenny": 5711,
      "teen": 5712,
      "slightly": 5713,
      "uc": 5714,
      "##eat": 5715,
      "command": 5716,
      "recap": 5717,
      "basis": 5718,
      "moham": 5719,
      "kend": 5720,
      "##hp": 5721,
      "barnes": 5722,
      "motor": 5723,
      "desire": 5724,
      "##look": 5725,
      "inch": 5726,
      "bes": 5727,
      "weap": 5728,
      "buckeyes": 5729,
      "##omp": 5730,
      "mcilroy": 5731,
      "fergus": 5732,
      "header": 5733,
      "timber": 5734,
      "speculation": 5735,
      "burnley": 5736,
      "lev": 5737,
      "ferrari": 5738,
      "undefeated": 5739,
      "barca": 5740,
      "latter": 5741,
      "stages": 5742,
      "famous": 5743,
      "fowler": 5744,
      "xi": 5745,
      "opens": 5746,
      "anywhere": 5747,
      "tuck": 5748,
      "questionable": 5749,
      "opposite": 5750,
      "2002": 5751,
      "mull": 5752,
      "gill": 5753,
      "pakistan": 5754,
      "ss": 5755,
      "loved": 5756,
      "facility": 5757,
      "stone": 5758,
      "##abled": 5759,
      "croat": 5760,
      "boards": 5761,
      "##otball": 5762,
      "midway": 5763,
      "peterson": 5764,
      "04": 5765,
      "##izz": 5766,
      "critical": 5767,
      "matchups": 5768,
      "rim": 5769,
      "original": 5770,
      "rou": 5771,
      "pieces": 5772,
      "pock": 5773,
      "linebackers": 5774,
      "contributed": 5775,
      "attract": 5776,
      "din": 5777,
      "##onda": 5778,
      "kicked": 5779,
      "stuck": 5780,
      "slideshow": 5781,
      "attendance": 5782,
      "planned": 5783,
      "policy": 5784,
      "britain": 5785,
      "ferguson": 5786,
      "criticism": 5787,
      "mick": 5788,
      "belgium": 5789,
      "arms": 5790,
      "##gram": 5791,
      "birdie": 5792,
      "scratch": 5793,
      "discussion": 5794,
      "nr": 5795,
      "bord": 5796,
      "##ussia": 5797,
      "music": 5798,
      "persp": 5799,
      "evan": 5800,
      "##rah": 5801,
      "various": 5802,
      "fore": 5803,
      "ale": 5804,
      "berth": 5805,
      "bound": 5806,
      "##ulated": 5807,
      "##illo": 5808,
      "increase": 5809,
      "impossible": 5810,
      "visiting": 5811,
      "landing": 5812,
      "worried": 5813,
      "casey": 5814,
      "247": 5815,
      "villan": 5816,
      "##ardi": 5817,
      "alt": 5818,
      "noah": 5819,
      "saved": 5820,
      "##enz": 5821,
      "brack": 5822,
      "stronger": 5823,
      "bubble": 5824,
      "##oms": 5825,
      "speedway": 5826,
      "mile": 5827,
      "locked": 5828,
      "celebration": 5829,
      "rapid": 5830,
      "ceremony": 5831,
      "##epend": 5832,
      "girl": 5833,
      "cust": 5834,
      "##ders": 5835,
      "##anda": 5836,
      "ip": 5837,
      "secret": 5838,
      "borussia": 5839,
      "layup": 5840,
      "2b": 5841,
      "devin": 5842,
      "recovered": 5843,
      "finishes": 5844,
      "bowling": 5845,
      "brees": 5846,
      "schol": 5847,
      "blame": 5848,
      "ump": 5849,
      "beautif": 5850,
      "foster": 5851,
      "security": 5852,
      "circum": 5853,
      "swansea": 5854,
      "peyton": 5855,
      "arrival": 5856,
      "##bast": 5857,
      "somehow": 5858,
      "food": 5859,
      "##ieth": 5860,
      "candidates": 5861,
      "published": 5862,
      "emph": 5863,
      "independ": 5864,
      "human": 5865,
      "deserved": 5866,
      "harder": 5867,
      "embar": 5868,
      "##hal": 5869,
      "described": 5870,
      "melbourne": 5871,
      "ug": 5872,
      "##ival": 5873,
      "offensively": 5874,
      "versus": 5875,
      "planning": 5876,
      "qualify": 5877,
      "nag": 5878,
      "##uay": 5879,
      "joy": 5880,
      "kohl": 5881,
      "trial": 5882,
      "request": 5883,
      "lopez": 5884,
      "master": 5885,
      "brend": 5886,
      "mixed": 5887,
      "relegation": 5888,
      "lone": 5889,
      "mayweather": 5890,
      "chad": 5891,
      "natural": 5892,
      "18th": 5893,
      "thread": 5894,
      "##bling": 5895,
      "reigning": 5896,
      "##chi": 5897,
      "assum": 5898,
      "afford": 5899,
      "mph": 5900,
      "foundation": 5901,
      "rated": 5902,
      "altern": 5903,
      "##vech": 5904,
      "tide": 5905,
      "##rafted": 5906,
      "arch": 5907,
      "relatively": 5908,
      "contention": 5909,
      "connected": 5910,
      "predictions": 5911,
      "##war": 5912,
      "recalled": 5913,
      "brighton": 5914,
      "barely": 5915,
      "yahoo": 5916,
      "intrig": 5917,
      "greater": 5918,
      "outsc": 5919,
      "reward": 5920,
      "harbaugh": 5921,
      "riley": 5922,
      "##una": 5923,
      "hills": 5924,
      "##arius": 5925,
      "jor": 5926,
      "historic": 5927,
      "crim": 5928,
      "##esome": 5929,
      "sending": 5930,
      "##ference": 5931,
      "ensure": 5932,
      "ces": 5933,
      "##ovich": 5934,
      "crawford": 5935,
      "wolf": 5936,
      "##what": 5937,
      "loose": 5938,
      "flying": 5939,
      "alive": 5940,
      "billion": 5941,
      "ari": 5942,
      "convin": 5943,
      "legit": 5944,
      "elect": 5945,
      "undrafted": 5946,
      "##iler": 5947,
      "##iny": 5948,
      "docum": 5949,
      "require": 5950,
      "stor": 5951,
      "posting": 5952,
      "roberto": 5953,
      "chose": 5954,
      "chat": 5955,
      "portugal": 5956,
      "load": 5957,
      "##eds": 5958,
      "hazard": 5959,
      "##athon": 5960,
      "established": 5961,
      "glad": 5962,
      "spieth": 5963,
      "15th": 5964,
      "chairman": 5965,
      "fee": 5966,
      "operations": 5967,
      "neck": 5968,
      "productive": 5969,
      "##ishing": 5970,
      "##rass": 5971,
      "legal": 5972,
      "exhib": 5973,
      "arc": 5974,
      "negative": 5975,
      "environ": 5976,
      "flash": 5977,
      "amb": 5978,
      "ah": 5979,
      "african": 5980,
      "paying": 5981,
      "pul": 5982,
      "expand": 5983,
      "##break": 5984,
      "daughter": 5985,
      "##ledge": 5986,
      "alonso": 5987,
      "indeed": 5988,
      "promising": 5989,
      "pete": 5990,
      "##mont": 5991,
      "expects": 5992,
      "circumst": 5993,
      "serving": 5994,
      "shutout": 5995,
      "##ancy": 5996,
      "somewhat": 5997,
      "whit": 5998,
      "rolling": 5999,
      "fastest": 6000,
      "perspective": 6001,
      "emerged": 6002,
      "##mos": 6003,
      "tells": 6004,
      "awesome": 6005,
      "redsh": 6006,
      "lowest": 6007,
      "stunning": 6008,
      "kem": 6009,
      "goff": 6010,
      "zid": 6011,
      "2001": 6012,
      "120": 6013,
      "fem": 6014,
      "##aked": 6015,
      "grabbed": 6016,
      "scher": 6017,
      "##water": 6018,
      "##enko": 6019,
      "sir": 6020,
      "##oll": 6021,
      "mig": 6022,
      "tweeted": 6023,
      "preparing": 6024,
      "##ented": 6025,
      "strikes": 6026,
      "surely": 6027,
      "albert": 6028,
      "edition": 6029,
      "##aha": 6030,
      "##encia": 6031,
      "cit": 6032,
      "choose": 6033,
      "notable": 6034,
      "##ulous": 6035,
      "stint": 6036,
      "07": 6037,
      "showdown": 6038,
      "gear": 6039,
      "14th": 6040,
      "suarez": 6041,
      "msnews": 6042,
      "strate": 6043,
      "vel": 6044,
      "##geon": 6045,
      "strategy": 6046,
      "pitt": 6047,
      "scenario": 6048,
      "rall": 6049,
      "catholic": 6050,
      "##inity": 6051,
      "brock": 6052,
      "fisher": 6053,
      "primary": 6054,
      "##bilt": 6055,
      "eli": 6056,
      "suc": 6057,
      "##ology": 6058,
      "barry": 6059,
      "monaco": 6060,
      "sounds": 6061,
      "dog": 6062,
      "tremendous": 6063,
      "fract": 6064,
      "linemen": 6065,
      "##pat": 6066,
      "rah": 6067,
      "seriously": 6068,
      "syd": 6069,
      "hotel": 6070,
      "##cal": 6071,
      "lyon": 6072,
      "trio": 6073,
      "##roke": 6074,
      "seeking": 6075,
      "zidane": 6076,
      "##whel": 6077,
      "##anna": 6078,
      "weird": 6079,
      "dealt": 6080,
      "lands": 6081,
      "##town": 6082,
      "##mad": 6083,
      "vanderbilt": 6084,
      "terrible": 6085,
      "reacts": 6086,
      "blog": 6087,
      "tenure": 6088,
      "levels": 6089,
      "##11": 6090,
      "og": 6091,
      "autom": 6092,
      "##iece": 6093,
      "interim": 6094,
      "##ural": 6095,
      "dod": 6096,
      "poch": 6097,
      "forg": 6098,
      "kat": 6099,
      "ideal": 6100,
      "necessarily": 6101,
      "mov": 6102,
      "flex": 6103,
      "decades": 6104,
      "williamson": 6105,
      "fitness": 6106,
      "sev": 6107,
      "midd": 6108,
      "##mission": 6109,
      "global": 6110,
      "##isberger": 6111,
      "06": 6112,
      "hughes": 6113,
      "embarrass": 6114,
      "dy": 6115,
      "evidence": 6116,
      "settled": 6117,
      "bronze": 6118,
      "##ns": 6119,
      "cars": 6120,
      "spirit": 6121,
      "gather": 6122,
      "standout": 6123,
      "suddenly": 6124,
      "column": 6125,
      "occasion": 6126,
      "mcdon": 6127,
      "hearing": 6128,
      "##ista": 6129,
      "##ethl": 6130,
      "powerful": 6131,
      "challenges": 6132,
      "roethl": 6133,
      "blocking": 6134,
      "jumped": 6135,
      "bum": 6136,
      "virus": 6137,
      "manage": 6138,
      "rogers": 6139,
      "attempted": 6140,
      "wy": 6141,
      "dynamic": 6142,
      "oz": 6143,
      "##ieu": 6144,
      "##fred": 6145,
      "##ports": 6146,
      "rooney": 6147,
      "##oom": 6148,
      "##ipper": 6149,
      "erik": 6150,
      "treatment": 6151,
      "roethlisberger": 6152,
      "gut": 6153,
      "pole": 6154,
      "fixture": 6155,
      "protoc": 6156,
      "canceled": 6157,
      "vett": 6158,
      "succeed": 6159,
      "germain": 6160,
      "villanova": 6161,
      "porter": 6162,
      "spartans": 6163,
      "uncle": 6164,
      "nature": 6165,
      "##auer": 6166,
      "exchange": 6167,
      "03": 6168,
      "flat": 6169,
      "rookies": 6170,
      "##orns": 6171,
      "raise": 6172,
      "##wolves": 6173,
      "simon": 6174,
      "ramos": 6175,
      "parts": 6176,
      "##bin": 6177,
      "charges": 6178,
      "##iance": 6179,
      "##zek": 6180,
      "billy": 6181,
      "##ope": 6182,
      "sydney": 6183,
      "removed": 6184,
      "perry": 6185,
      "fs": 6186,
      "priority": 6187,
      "scholars": 6188,
      "workouts": 6189,
      "overcome": 6190,
      "holiday": 6191,
      "##lington": 6192,
      "secured": 6193,
      "sanders": 6194,
      "dor": 6195,
      "letter": 6196,
      "utd": 6197,
      "serena": 6198,
      "dim": 6199,
      "sacked": 6200,
      "heels": 6201,
      "pleased": 6202,
      "##atives": 6203,
      "##ettino": 6204,
      "##court": 6205,
      "##ubb": 6206,
      "flu": 6207,
      "guid": 6208,
      "athleticism": 6209,
      "ric": 6210,
      "##night": 6211,
      "amate": 6212,
      "tul": 6213,
      "pochettino": 6214,
      "sabr": 6215,
      "deserves": 6216,
      "educ": 6217,
      "rafael": 6218,
      "remarkable": 6219,
      "advice": 6220,
      "drink": 6221,
      "pav": 6222,
      "deandre": 6223,
      "acl": 6224,
      "restart": 6225,
      "environment": 6226,
      "150": 6227,
      "bounced": 6228,
      "zimmer": 6229,
      "fumb": 6230,
      "upgr": 6231,
      "##ailed": 6232,
      "##stein": 6233,
      "shootout": 6234,
      "cham": 6235,
      "von": 6236,
      "laur": 6237,
      "complain": 6238,
      "hug": 6239,
      "liked": 6240,
      "##aun": 6241,
      "##ju": 6242,
      "allows": 6243,
      "conclud": 6244,
      "resum": 6245,
      "##cock": 6246,
      "anti": 6247,
      "riz": 6248,
      "bust": 6249,
      "demon": 6250,
      "famil": 6251,
      "directly": 6252,
      "quarterfinals": 6253,
      "coyotes": 6254,
      "110": 6255,
      "02": 6256,
      "##nie": 6257,
      "scholarship": 6258,
      "workout": 6259,
      "##ruct": 6260,
      "##biid": 6261,
      "101": 6262,
      "##ulations": 6263,
      "contenders": 6264,
      "richardson": 6265,
      "##ylan": 6266,
      "partnership": 6267,
      "##patrick": 6268,
      "rivera": 6269,
      "goaltender": 6270,
      "birthday": 6271,
      "nd": 6272,
      "lukaku": 6273,
      "mccl": 6274,
      "darren": 6275,
      "hung": 6276,
      "honors": 6277,
      "crack": 6278,
      "lots": 6279,
      "shel": 6280,
      "stops": 6281,
      "appoint": 6282,
      "harv": 6283,
      "physically": 6284,
      "kawhi": 6285,
      "##mar": 6286,
      "continuing": 6287,
      "hundred": 6288,
      "gained": 6289,
      "surrounding": 6290,
      "trailing": 6291,
      "towns": 6292,
      "beautiful": 6293,
      "trot": 6294,
      "##mble": 6295,
      "longtime": 6296,
      "mount": 6297,
      "17th": 6298,
      "gunners": 6299,
      "gift": 6300,
      "##quently": 6301,
      "105": 6302,
      "curt": 6303,
      "managers": 6304,
      "accomplish": 6305,
      "opposition": 6306,
      "##mb": 6307,
      "liber": 6308,
      "##raw": 6309,
      "handful": 6310,
      "frustrating": 6311,
      "marco": 6312,
      "brain": 6313,
      "sup": 6314,
      "brut": 6315,
      "featuring": 6316,
      "##vechkin": 6317,
      "protest": 6318,
      "medals": 6319,
      "reput": 6320,
      "##hard": 6321,
      "collect": 6322,
      "wickets": 6323,
      "palmer": 6324,
      "kyrie": 6325,
      "dustin": 6326,
      "download": 6327,
      "##phere": 6328,
      "discussed": 6329,
      "##igned": 6330,
      "##oted": 6331,
      "bog": 6332,
      "introdu": 6333,
      "brien": 6334,
      "rising": 6335,
      "##iving": 6336,
      "embiid": 6337,
      "rosen": 6338,
      "rar": 6339,
      "disabled": 6340,
      "fighters": 6341,
      "jab": 6342,
      "wise": 6343,
      "jenkins": 6344,
      "leap": 6345,
      "##clusion": 6346,
      "platform": 6347,
      "solsk": 6348,
      "embr": 6349,
      "ovechkin": 6350,
      "16th": 6351,
      "##lander": 6352,
      "250": 6353,
      "##gom": 6354,
      "vettel": 6355,
      "converted": 6356,
      "scand": 6357,
      "forcing": 6358,
      "stoke": 6359,
      "honestly": 6360,
      "iron": 6361,
      "tenn": 6362,
      "mail": 6363,
      "increased": 6364,
      "wolverines": 6365,
      "##rel": 6366,
      "usp": 6367,
      "responsibility": 6368,
      "cancell": 6369,
      "jefferson": 6370,
      "paper": 6371,
      "apple": 6372,
      "calm": 6373,
      "bellator": 6374,
      "bold": 6375,
      "wrist": 6376,
      "knowledge": 6377,
      "expecting": 6378,
      "ratings": 6379,
      "sebast": 6380,
      "julian": 6381,
      "robb": 6382,
      "perman": 6383,
      "votes": 6384,
      "warren": 6385,
      "loves": 6386,
      "band": 6387,
      "shane": 6388,
      "mccoy": 6389,
      "truth": 6390,
      "wit": 6391,
      "timberwolves": 6392,
      "##len": 6393,
      "ramsey": 6394,
      "pocket": 6395,
      "backfield": 6396,
      "##18": 6397,
      "bou": 6398,
      "santa": 6399,
      "qualified": 6400,
      "frustrated": 6401,
      "shak": 6402,
      "vari": 6403,
      "female": 6404,
      "fixtures": 6405,
      "paint": 6406,
      "sunderland": 6407,
      "##burn": 6408,
      "entirely": 6409,
      "consistency": 6410,
      "conv": 6411,
      "banned": 6412,
      "kohli": 6413,
      "withd": 6414,
      "royal": 6415,
      "wore": 6416,
      "fairly": 6417,
      "propos": 6418,
      "lionel": 6419,
      "amp": 6420,
      "##eno": 6421,
      "improving": 6422,
      "##icing": 6423,
      "montgom": 6424,
      "kuz": 6425,
      "subject": 6426,
      "##mers": 6427,
      "expressed": 6428,
      "marathon": 6429,
      "##isky": 6430,
      "zack": 6431,
      "insider": 6432,
      "##lli": 6433,
      "sacrif": 6434,
      "engine": 6435,
      "admin": 6436,
      "mlive": 6437,
      "song": 6438,
      "##oni": 6439,
      "##anche": 6440,
      "exist": 6441,
      "rely": 6442,
      "##uer": 6443,
      "heisman": 6444,
      "##ales": 6445,
      "essentially": 6446,
      "##ases": 6447,
      "bt": 6448,
      "failing": 6449,
      "##sch": 6450,
      "circumstances": 6451,
      "stef": 6452,
      "##kyo": 6453,
      "switz": 6454,
      "##formed": 6455,
      "cardiff": 6456,
      "##umped": 6457,
      "venue": 6458,
      "##ran": 6459,
      "strain": 6460,
      "mccarthy": 6461,
      "issued": 6462,
      "##esy": 6463,
      "##lle": 6464,
      "lov": 6465,
      "actual": 6466,
      "marked": 6467,
      "thor": 6468,
      "killed": 6469,
      "format": 6470,
      "##aways": 6471,
      "tokyo": 6472,
      "prize": 6473,
      "accident": 6474,
      "firing": 6475,
      "hopkins": 6476,
      "dutch": 6477,
      "pear": 6478,
      "##otted": 6479,
      "incredibly": 6480,
      "scene": 6481,
      "keeper": 6482,
      "toy": 6483,
      "sprint": 6484,
      "hosting": 6485,
      "crosby": 6486,
      "dennis": 6487,
      "##oring": 6488,
      "icon": 6489,
      "1999": 6490,
      "favorites": 6491,
      "##encer": 6492,
      "##izes": 6493,
      "intention": 6494,
      "daytona": 6495,
      "##min": 6496,
      "climb": 6497,
      "legacy": 6498,
      "invit": 6499,
      "gareth": 6500,
      "minne": 6501,
      "##rone": 6502,
      "##can": 6503,
      "lhp": 6504,
      "##jaer": 6505,
      "##others": 6506,
      "narrow": 6507,
      "forever": 6508,
      "federation": 6509,
      "redshirt": 6510,
      "repeated": 6511,
      "helmet": 6512,
      "nom": 6513,
      "repeat": 6514,
      "bod": 6515,
      "somewhere": 6516,
      "philly": 6517,
      "##acular": 6518,
      "homet": 6519,
      "##nba": 6520,
      "bogey": 6521,
      "videos": 6522,
      "dir": 6523,
      "modern": 6524,
      "underst": 6525,
      "##inese": 6526,
      "snapped": 6527,
      "debate": 6528,
      "valencia": 6529,
      "defle": 6530,
      "bracket": 6531,
      "##leton": 6532,
      "chron": 6533,
      "agu": 6534,
      "##vis": 6535,
      "lever": 6536,
      "3b": 6537,
      "odd": 6538,
      "trub": 6539,
      "##mingham": 6540,
      "outcome": 6541,
      "##aren": 6542,
      "holm": 6543,
      "unlike": 6544,
      "han": 6545,
      "##point": 6546,
      "##inel": 6547,
      "affect": 6548,
      "##aming": 6549,
      "##ao": 6550,
      "chand": 6551,
      "##amin": 6552,
      "dean": 6553,
      "norman": 6554,
      "blast": 6555,
      "birmingham": 6556,
      "teach": 6557,
      "##gie": 6558,
      "##rative": 6559,
      "1998": 6560,
      "capped": 6561,
      "awarded": 6562,
      "hometown": 6563,
      "putt": 6564,
      "clin": 6565,
      "adds": 6566,
      "praise": 6567,
      "trubisky": 6568,
      "amateur": 6569,
      "##hood": 6570,
      "ort": 6571,
      "philipp": 6572,
      "chasing": 6573,
      "gay": 6574,
      "brun": 6575,
      "eliminated": 6576,
      "##acity": 6577,
      "alan": 6578,
      "##iago": 6579,
      "prest": 6580,
      "tail": 6581,
      "creating": 6582,
      "fat": 6583,
      "dick": 6584,
      "##ground": 6585,
      "lill": 6586,
      "loy": 6587,
      "thous": 6588,
      "tribut": 6589,
      "typically": 6590,
      "lean": 6591,
      "##isf": 6592,
      "rice": 6593,
      "terrif": 6594,
      "whist": 6595,
      "montgomery": 6596,
      "ridic": 6597,
      "dylan": 6598,
      "lottery": 6599,
      "194": 6600,
      "forth": 6601,
      "largest": 6602,
      "cheer": 6603,
      "gabriel": 6604,
      "trailed": 6605,
      "##je": 6606,
      "dark": 6607,
      "##cic": 6608,
      "##cil": 6609,
      "##32": 6610,
      "##tle": 6611,
      "##cts": 6612,
      "grass": 6613,
      "ops": 6614,
      "homered": 6615,
      "sorry": 6616,
      "##itary": 6617,
      "keith": 6618,
      "thousand": 6619,
      "upside": 6620,
      "unbel": 6621,
      "nights": 6622,
      "freeman": 6623,
      "hair": 6624,
      "eat": 6625,
      "nev": 6626,
      "traditional": 6627,
      "##anim": 6628,
      "obl": 6629,
      "solskjaer": 6630,
      "louisiana": 6631,
      "kal": 6632,
      "unbeliev": 6633,
      "settle": 6634,
      "sabres": 6635,
      "scar": 6636,
      "aval": 6637,
      "cancer": 6638,
      "liter": 6639,
      "kil": 6640,
      "congrat": 6641,
      "##ulate": 6642,
      "delight": 6643,
      "minneapolis": 6644,
      "lank": 6645,
      "mater": 6646,
      "bond": 6647,
      "cu": 6648,
      "degree": 6649,
      "quarters": 6650,
      "opted": 6651,
      "lowry": 6652,
      "hopeful": 6653,
      "##jan": 6654,
      "tab": 6655,
      "##ansen": 6656,
      "produce": 6657,
      "misses": 6658,
      "regulation": 6659,
      "possessions": 6660,
      "anymore": 6661,
      "##wa": 6662,
      "lau": 6663,
      "wes": 6664,
      "salt": 6665,
      "kris": 6666,
      "generally": 6667,
      "awa": 6668,
      "spokes": 6669,
      "seal": 6670,
      "gators": 6671,
      "string": 6672,
      "ongoing": 6673,
      "ceo": 6674,
      "##olution": 6675,
      "600": 6676,
      "whenever": 6677,
      "prec": 6678,
      "krist": 6679,
      "books": 6680,
      "tap": 6681,
      "streaming": 6682,
      "hate": 6683,
      "volleyball": 6684,
      "pulling": 6685,
      "commer": 6686,
      "multi": 6687,
      "mills": 6688,
      "##light": 6689,
      "croatia": 6690,
      "reputation": 6691,
      "econ": 6692,
      "covered": 6693,
      "complex": 6694,
      "##cut": 6695,
      "stated": 6696,
      "intens": 6697,
      "pedro": 6698,
      "determine": 6699,
      "monster": 6700,
      "vic": 6701,
      "##apping": 6702,
      "wagner": 6703,
      "sportsnet": 6704,
      "drawing": 6705,
      "calend": 6706,
      "grind": 6707,
      "fest": 6708,
      "controll": 6709,
      "neil": 6710,
      "##oon": 6711,
      "matched": 6712,
      "linc": 6713,
      "franklin": 6714,
      "coug": 6715,
      "1b": 6716,
      "employ": 6717,
      "voice": 6718,
      "samuel": 6719,
      "abd": 6720,
      "hosted": 6721,
      "cuts": 6722,
      "##mitted": 6723,
      "busy": 6724,
      "deserve": 6725,
      "nike": 6726,
      "courtesy": 6727,
      "ingram": 6728,
      "negotiations": 6729,
      "ties": 6730,
      "beg": 6731,
      "##ador": 6732,
      "rizzo": 6733,
      "emerg": 6734,
      "flo": 6735,
      "##cci": 6736,
      "brothers": 6737,
      "##19": 6738,
      "##apt": 6739,
      "memory": 6740,
      "attitude": 6741,
      "glass": 6742,
      "gronkowski": 6743,
      "##inent": 6744,
      "revers": 6745,
      "colomb": 6746,
      "seg": 6747,
      "##here": 6748,
      "hig": 6749,
      "106": 6750,
      "weekly": 6751,
      "##oln": 6752,
      "revenue": 6753,
      "neal": 6754,
      "##iveness": 6755,
      "promise": 6756,
      "custom": 6757,
      "coutinho": 6758,
      "copa": 6759,
      "martial": 6760,
      "##vr": 6761,
      "signings": 6762,
      "finds": 6763,
      "disappointment": 6764,
      "##mbley": 6765,
      "roles": 6766,
      "sits": 6767,
      "##azier": 6768,
      "fury": 6769,
      "encoun": 6770,
      "presented": 6771,
      "abuse": 6772,
      "##cover": 6773,
      "sevilla": 6774,
      "wembley": 6775,
      "alexis": 6776,
      "totally": 6777,
      "leeds": 6778,
      "instant": 6779,
      "army": 6780,
      "bale": 6781,
      "mend": 6782,
      "fitzpatrick": 6783,
      "doubled": 6784,
      "cougars": 6785,
      "##heim": 6786,
      "atmos": 6787,
      "ugly": 6788,
      "avalanche": 6789,
      "graduate": 6790,
      "lillard": 6791,
      "famer": 6792,
      "##een": 6793,
      "promoted": 6794,
      "hire": 6795,
      "kicking": 6796,
      "magn": 6797,
      "participate": 6798,
      "groin": 6799,
      "arbit": 6800,
      "superb": 6801,
      "atmosphere": 6802,
      "tb": 6803,
      "wallace": 6804,
      "rory": 6805,
      "sut": 6806,
      "unanim": 6807,
      "garopp": 6808,
      "glove": 6809,
      "##vy": 6810,
      "pinch": 6811,
      "stap": 6812,
      "manny": 6813,
      "##10": 6814,
      "breakout": 6815,
      "garoppolo": 6816,
      "rolled": 6817,
      "proceed": 6818,
      "lineups": 6819,
      "hoped": 6820,
      "explains": 6821,
      "belief": 6822,
      "pointed": 6823,
      "sherman": 6824,
      "##oto": 6825,
      "##iard": 6826,
      "reign": 6827,
      "countries": 6828,
      "lamp": 6829,
      "##mid": 6830,
      "miguel": 6831,
      "developed": 6832,
      "tucker": 6833,
      "drawn": 6834,
      "##fit": 6835,
      "##rahim": 6836,
      "provides": 6837,
      "conceded": 6838,
      "speaks": 6839,
      "failure": 6840,
      "incons": 6841,
      "spectacular": 6842,
      "spencer": 6843,
      "oliver": 6844,
      "holt": 6845,
      "updated": 6846,
      "admits": 6847,
      "dramatic": 6848,
      "shanahan": 6849,
      "uniform": 6850,
      "##ob": 6851,
      "##box": 6852,
      "bein": 6853,
      "bald": 6854,
      "econom": 6855,
      "perfectly": 6856,
      "allegations": 6857,
      "recovering": 6858,
      "enjoying": 6859,
      "drama": 6860,
      "groups": 6861,
      "purch": 6862,
      "normally": 6863,
      "kers": 6864,
      "##rap": 6865,
      "expans": 6866,
      "104": 6867,
      "brent": 6868,
      "cutting": 6869,
      "vision": 6870,
      "cruz": 6871,
      "memorable": 6872,
      "separate": 6873,
      "numer": 6874,
      "skipper": 6875,
      "##mpo": 6876,
      "##lers": 6877,
      "favourite": 6878,
      "t20": 6879,
      "generation": 6880,
      "circu": 6881,
      "bowler": 6882,
      "##resp": 6883,
      "explosive": 6884,
      "brendan": 6885,
      "cart": 6886,
      "switzerland": 6887,
      "completing": 6888,
      "cass": 6889,
      "resulted": 6890,
      "inconsist": 6891,
      "##rated": 6892,
      "scram": 6893,
      "letting": 6894,
      "dix": 6895,
      "arrested": 6896,
      "divisional": 6897,
      "challenging": 6898,
      "battling": 6899,
      "##band": 6900,
      "sustained": 6901,
      "recom": 6902,
      "trades": 6903,
      "nc": 6904,
      "seats": 6905,
      "karl": 6906,
      "sri": 6907,
      "cze": 6908,
      "santos": 6909,
      "finger": 6910,
      "stevens": 6911,
      "desperate": 6912,
      "##zing": 6913,
      "ibrahim": 6914,
      "understanding": 6915,
      "writing": 6916,
      "declined": 6917,
      "mane": 6918,
      "shy": 6919,
      "belong": 6920,
      "##force": 6921,
      "providing": 6922,
      "seniors": 6923,
      "administ": 6924,
      "officer": 6925,
      "ppg": 6926,
      "voting": 6927,
      "800": 6928,
      "herald": 6929,
      "longh": 6930,
      "##pn": 6931,
      "brutal": 6932,
      "outscored": 6933,
      "outl": 6934,
      "##egal": 6935,
      "jean": 6936,
      "calendar": 6937,
      "randy": 6938,
      "rarely": 6939,
      "memories": 6940,
      "rallied": 6941,
      "sull": 6942,
      "preparation": 6943,
      "##million": 6944,
      "stopp": 6945,
      "##ishop": 6946,
      "hardly": 6947,
      "diagn": 6948,
      "affected": 6949,
      "dance": 6950,
      "weakness": 6951,
      "substitute": 6952,
      "pens": 6953,
      "##ovan": 6954,
      "granted": 6955,
      "package": 6956,
      "private": 6957,
      "stroke": 6958,
      "mentality": 6959,
      "voted": 6960,
      "families": 6961,
      "ay": 6962,
      "1996": 6963,
      "category": 6964,
      "stanton": 6965,
      "insists": 6966,
      "cul": 6967,
      "timing": 6968,
      "hod": 6969,
      "##col": 6970,
      "##football": 6971,
      "warner": 6972,
      "##urred": 6973,
      "establish": 6974,
      "maid": 6975,
      "gymn": 6976,
      "rf": 6977,
      "answered": 6978,
      "contests": 6979,
      "##rier": 6980,
      "##jk": 6981,
      "mirror": 6982,
      "burns": 6983,
      "appreciate": 6984,
      "##uru": 6985,
      "symp": 6986,
      "ahl": 6987,
      "stamford": 6988,
      "##lla": 6989,
      "overt": 6990,
      "trout": 6991,
      "##iy": 6992,
      "meyer": 6993,
      "shake": 6994,
      "foles": 6995,
      "motors": 6996,
      "excit": 6997,
      "2022": 6998,
      "breakdown": 6999,
      "involving": 7000,
      "machado": 7001,
      "faster": 7002,
      "##urance": 7003,
      "fulham": 7004,
      "##sl": 7005,
      "##irez": 7006,
      "sebastian": 7007,
      "tired": 7008,
      "lady": 7009,
      "lincoln": 7010,
      "kershaw": 7011,
      "gro": 7012,
      "burr": 7013,
      "complic": 7014,
      "demonstr": 7015,
      "effici": 7016,
      "intent": 7017,
      "watt": 7018,
      "mickelson": 7019,
      "explain": 7020,
      "crisis": 7021,
      "##har": 7022,
      "102": 7023,
      "##bas": 7024,
      "108": 7025,
      "mario": 7026,
      "controversial": 7027,
      "guarant": 7028,
      "lived": 7029,
      "gor": 7030,
      "##imated": 7031,
      "103": 7032,
      "beats": 7033,
      "sf": 7034,
      "baby": 7035,
      "unbelievable": 7036,
      "clubhouse": 7037,
      "compens": 7038,
      "##acco": 7039,
      "defeats": 7040,
      "##agger": 7041,
      "frustration": 7042,
      "##strom": 7043,
      "##zel": 7044,
      "##asty": 7045,
      "##ria": 7046,
      "palm": 7047,
      "##etime": 7048,
      "drops": 7049,
      "afp": 7050,
      "##rod": 7051,
      "kan": 7052,
      "realize": 7053,
      "##osen": 7054,
      "integr": 7055,
      "performed": 7056,
      "##ridge": 7057,
      "emery": 7058,
      "rhyth": 7059,
      "##osa": 7060,
      "##ivan": 7061,
      "fernando": 7062,
      "##ded": 7063,
      "tu": 7064,
      "lex": 7065,
      "till": 7066,
      "125": 7067,
      "excitement": 7068,
      "boat": 7069,
      "riding": 7070,
      "publicly": 7071,
      "legendary": 7072,
      "okay": 7073,
      "developing": 7074,
      "swept": 7075,
      "##ae": 7076,
      "gonzaga": 7077,
      "phen": 7078,
      "confirm": 7079,
      "scorers": 7080,
      "##ropri": 7081,
      "dedic": 7082,
      "##rum": 7083,
      "behav": 7084,
      "##oop": 7085,
      "personally": 7086,
      "trey": 7087,
      "assault": 7088,
      "rounder": 7089,
      "takeaways": 7090,
      "location": 7091,
      "insisted": 7092,
      "##kan": 7093,
      "pour": 7094,
      "ramirez": 7095,
      "indust": 7096,
      "##etok": 7097,
      "barrett": 7098,
      "terps": 7099,
      "laz": 7100,
      "darnold": 7101,
      "tape": 7102,
      "podium": 7103,
      "##olet": 7104,
      "glory": 7105,
      "owned": 7106,
      "##agon": 7107,
      "glenn": 7108,
      "temple": 7109,
      "struct": 7110,
      "ownership": 7111,
      "youngest": 7112,
      "chandler": 7113,
      "smaller": 7114,
      "antetok": 7115,
      "ont": 7116,
      "turf": 7117,
      "slip": 7118,
      "versatile": 7119,
      "alvarez": 7120,
      "awful": 7121,
      "cheap": 7122,
      "reyn": 7123,
      "##elman": 7124,
      "##rant": 7125,
      "dugout": 7126,
      "rhythm": 7127,
      "laf": 7128,
      "activities": 7129,
      "regularly": 7130,
      "pictures": 7131,
      "loud": 7132,
      "exhibition": 7133,
      "birdies": 7134,
      "##exp": 7135,
      "entry": 7136,
      "##atically": 7137,
      "walton": 7138,
      "trend": 7139,
      "sheet": 7140,
      "importance": 7141,
      "guil": 7142,
      "subse": 7143,
      "##ounmpo": 7144,
      "answers": 7145,
      "minimum": 7146,
      "##istry": 7147,
      "mari": 7148,
      "breath": 7149,
      "claiming": 7150,
      "justice": 7151,
      "roundup": 7152,
      "##efter": 7153,
      "slug": 7154,
      "chinese": 7155,
      "carm": 7156,
      "defended": 7157,
      "prel": 7158,
      "batter": 7159,
      "sponsors": 7160,
      "samp": 7161,
      "headlines": 7162,
      "gibson": 7163,
      "fits": 7164,
      "ox": 7165,
      "##bble": 7166,
      "##bes": 7167,
      "bailey": 7168,
      "slide": 7169,
      "toyota": 7170,
      "occasions": 7171,
      "quad": 7172,
      "emphas": 7173,
      "romo": 7174,
      "piv": 7175,
      "antetokounmpo": 7176,
      "au": 7177,
      "mohamed": 7178,
      "##around": 7179,
      "turgeon": 7180,
      "wre": 7181,
      "ellis": 7182,
      "vital": 7183,
      "##hr": 7184,
      "dash": 7185,
      "swimming": 7186,
      "nevada": 7187,
      "##olan": 7188,
      "smile": 7189,
      "dalton": 7190,
      "fields": 7191,
      "diving": 7192,
      "numerous": 7193,
      "fouls": 7194,
      "tribute": 7195,
      "station": 7196,
      "supporting": 7197,
      "replay": 7198,
      "noon": 7199,
      "ridge": 7200,
      "giant": 7201,
      "##ente": 7202,
      "mes": 7203,
      "##casts": 7204,
      "creek": 7205,
      "##itable": 7206,
      "dud": 7207,
      "careers": 7208,
      "langu": 7209,
      "drills": 7210,
      "liberty": 7211,
      "remainder": 7212,
      "nod": 7213,
      "lifted": 7214,
      "literally": 7215,
      "tally": 7216,
      "offering": 7217,
      "##umm": 7218,
      "serb": 7219,
      "celebrated": 7220,
      "designated": 7221,
      "rome": 7222,
      "backed": 7223,
      "payton": 7224,
      "leh": 7225,
      "##azette": 7226,
      "exception": 7227,
      "phenom": 7228,
      "shield": 7229,
      "circuit": 7230,
      "witness": 7231,
      "outings": 7232,
      "##axy": 7233,
      "reps": 7234,
      "##por": 7235,
      "saban": 7236,
      "eager": 7237,
      "##urch": 7238,
      "unclear": 7239,
      "shr": 7240,
      "##jans": 7241,
      "tune": 7242,
      "measure": 7243,
      "growth": 7244,
      "refused": 7245,
      "clutch": 7246,
      "blew": 7247,
      "##arks": 7248,
      "capacity": 7249,
      "strikeout": 7250,
      "##isa": 7251,
      "satisf": 7252,
      "##cep": 7253,
      "lefty": 7254,
      "ech": 7255,
      "exclusive": 7256,
      "##ios": 7257,
      "scouts": 7258,
      "circle": 7259,
      "wound": 7260,
      "accused": 7261,
      "20th": 7262,
      "##ups": 7263,
      "guarantee": 7264,
      "##nn": 7265,
      "donovan": 7266,
      "specifically": 7267,
      "gh": 7268,
      "jerseys": 7269,
      "##ruction": 7270,
      "apparent": 7271,
      "illustr": 7272,
      "##onte": 7273,
      "neigh": 7274,
      "kay": 7275,
      "replacing": 7276,
      "playmaker": 7277,
      "tyson": 7278,
      "##rez": 7279,
      "toughest": 7280,
      "expansion": 7281,
      "cher": 7282,
      "##12": 7283,
      "sidelines": 7284,
      "intriguing": 7285,
      "punish": 7286,
      "##room": 7287,
      "prince": 7288,
      "errors": 7289,
      "nether": 7290,
      "107": 7291,
      "robertson": 7292,
      "joint": 7293,
      "entertainment": 7294,
      "gurley": 7295,
      "bought": 7296,
      "##assed": 7297,
      "hype": 7298,
      "chem": 7299,
      "optimistic": 7300,
      "hurts": 7301,
      "##imination": 7302,
      "##ements": 7303,
      "##unes": 7304,
      "##ront": 7305,
      "boise": 7306,
      "council": 7307,
      "stopping": 7308,
      "border": 7309,
      "pleas": 7310,
      "sullivan": 7311,
      "spoken": 7312,
      "##ffield": 7313,
      "jesse": 7314,
      "violence": 7315,
      "thri": 7316,
      "##fb": 7317,
      "##sky": 7318,
      "113": 7319,
      "frenchman": 7320,
      "exerc": 7321,
      "lined": 7322,
      "brid": 7323,
      "##imp": 7324,
      "devast": 7325,
      "knight": 7326,
      "influence": 7327,
      "handled": 7328,
      "##icut": 7329,
      "##acing": 7330,
      "spaniard": 7331,
      "manz": 7332,
      "##fers": 7333,
      "recruits": 7334,
      "##ints": 7335,
      "efficient": 7336,
      "stellar": 7337,
      "boo": 7338,
      "##enton": 7339,
      "managing": 7340,
      "mort": 7341,
      "hotsp": 7342,
      "understands": 7343,
      "##iak": 7344,
      "fuel": 7345,
      "tate": 7346,
      "galaxy": 7347,
      "db": 7348,
      "benj": 7349,
      "jesus": 7350,
      "ibrahimovic": 7351,
      "attor": 7352,
      "totals": 7353,
      "bil": 7354,
      "dakota": 7355,
      "##terson": 7356,
      "##iters": 7357,
      "softball": 7358,
      "respective": 7359,
      "ivan": 7360,
      "harvey": 7361,
      "jorge": 7362,
      "##olds": 7363,
      "acknowledged": 7364,
      "bbc": 7365,
      "dray": 7366,
      "strange": 7367,
      "accepted": 7368,
      "beal": 7369,
      "gig": 7370,
      "##qv": 7371,
      "funny": 7372,
      "vincent": 7373,
      "gran": 7374,
      "netherlands": 7375,
      "ryder": 7376,
      "gio": 7377,
      "drake": 7378,
      "bowls": 7379,
      "##ivity": 7380,
      "resear": 7381,
      "nationally": 7382,
      "interior": 7383,
      "effectively": 7384,
      "connecticut": 7385,
      "ioc": 7386,
      "illness": 7387,
      "##aur": 7388,
      "byron": 7389,
      "grown": 7390,
      "115": 7391,
      "va": 7392,
      "independent": 7393,
      "accomplished": 7394,
      "absolute": 7395,
      "oliv": 7396,
      "rebounding": 7397,
      "myers": 7398,
      "stays": 7399,
      "southgate": 7400,
      "trojans": 7401,
      "247sports": 7402,
      "emirates": 7403,
      "czech": 7404,
      "fsu": 7405,
      "minus": 7406,
      "stoppage": 7407,
      "##do": 7408,
      "earth": 7409,
      "permanent": 7410,
      "sea": 7411,
      "##elle": 7412,
      "scandal": 7413,
      "freed": 7414,
      "##hen": 7415,
      "##lling": 7416,
      "sheffield": 7417,
      "ridiculous": 7418,
      "assignment": 7419,
      "reception": 7420,
      "##ounts": 7421,
      "temper": 7422,
      "verd": 7423,
      "5th": 7424,
      "##asts": 7425,
      "hudders": 7426,
      "fen": 7427,
      "curve": 7428,
      "written": 7429,
      "richards": 7430,
      "steady": 7431,
      "pacific": 7432,
      "huddersfield": 7433,
      "pederson": 7434,
      "routine": 7435,
      "rashford": 7436,
      "prompt": 7437,
      "blitz": 7438,
      "badgers": 7439,
      "discussions": 7440,
      "background": 7441,
      "hers": 7442,
      "study": 7443,
      "##cow": 7444,
      "actions": 7445,
      "jobs": 7446,
      "roman": 7447,
      "##amey": 7448,
      "maria": 7449,
      "##ulting": 7450,
      "bishop": 7451,
      "nose": 7452,
      "ov": 7453,
      "transl": 7454,
      "##bles": 7455,
      "dale": 7456,
      "bush": 7457,
      "attended": 7458,
      "showc": 7459,
      "fault": 7460,
      "##da": 7461,
      "##ora": 7462,
      "##fri": 7463,
      "##stone": 7464,
      "reliable": 7465,
      "mut": 7466,
      "duncan": 7467,
      "##nings": 7468,
      "hamp": 7469,
      "write": 7470,
      "ligue": 7471,
      "keys": 7472,
      "federal": 7473,
      "##park": 7474,
      "eagle": 7475,
      "##fs": 7476,
      "goodell": 7477,
      "##alled": 7478,
      "##chang": 7479,
      "atop": 7480,
      "willie": 7481,
      "inspired": 7482,
      "pursuit": 7483,
      "wonderful": 7484,
      "##osing": 7485,
      "visits": 7486,
      "writers": 7487,
      "badly": 7488,
      "responsible": 7489,
      "top25": 7490,
      "patterson": 7491,
      "##hardt": 7492,
      "brist": 7493,
      "boot": 7494,
      "##ensions": 7495,
      "benz": 7496,
      "arbitration": 7497,
      "##quent": 7498,
      "hotspur": 7499,
      "##bach": 7500,
      "lights": 7501,
      "quar": 7502,
      "calf": 7503,
      "pros": 7504,
      "111": 7505,
      "jumper": 7506,
      "scherzer": 7507,
      "trotz": 7508,
      "sarri": 7509,
      "255": 7510,
      "ortiz": 7511,
      "##colm": 7512,
      "longhorns": 7513,
      "##ray": 7514,
      "##enzo": 7515,
      "manziel": 7516,
      "trim": 7517,
      "malcolm": 7518,
      "winless": 7519,
      "##week": 7520,
      "##midt": 7521,
      "deck": 7522,
      "cad": 7523,
      "radar": 7524,
      "chuck": 7525,
      "exam": 7526,
      "web": 7527,
      "##illes": 7528,
      "sooners": 7529,
      "sin": 7530,
      "drought": 7531,
      "##ji": 7532,
      "joh": 7533,
      "tear": 7534,
      "eligibility": 7535,
      "significantly": 7536,
      "talents": 7537,
      "competit": 7538,
      "stu": 7539,
      "filed": 7540,
      "sentinel": 7541,
      "##wide": 7542,
      "delayed": 7543,
      "112": 7544,
      "skating": 7545,
      "appl": 7546,
      "flip": 7547,
      "stress": 7548,
      "mentally": 7549,
      "lanka": 7550,
      "tips": 7551,
      "##kh": 7552,
      "##oport": 7553,
      "1995": 7554,
      "lob": 7555,
      "sessions": 7556,
      "lux": 7557,
      "lawsu": 7558,
      "##isp": 7559,
      "##whelming": 7560,
      "farm": 7561,
      "tomlin": 7562,
      "burst": 7563,
      "norwich": 7564,
      "jav": 7565,
      "defeating": 7566,
      "toe": 7567,
      "contribute": 7568,
      "barg": 7569,
      "argument": 7570,
      "protection": 7571,
      "technology": 7572,
      "mates": 7573,
      "demarcus": 7574,
      "##aney": 7575,
      "##west": 7576,
      "dismissed": 7577,
      "terrific": 7578,
      "heck": 7579,
      "dc": 7580,
      "##low": 7581,
      "hendrick": 7582,
      "shooter": 7583,
      "cabrera": 7584,
      "declared": 7585,
      "introduced": 7586,
      "dominance": 7587,
      "##agan": 7588,
      "cities": 7589,
      "personality": 7590,
      "rapoport": 7591,
      "##ht": 7592,
      "lightweight": 7593,
      "odell": 7594,
      "retiring": 7595,
      "1997": 7596,
      "##17": 7597,
      "versatility": 7598,
      "##ieri": 7599,
      "##omez": 7600,
      "draymond": 7601,
      "##izer": 7602,
      "interviews": 7603,
      "jess": 7604,
      "neut": 7605,
      "intensity": 7606,
      "##elling": 7607,
      "referees": 7608,
      "##active": 7609,
      "##yne": 7610,
      "lan": 7611,
      "touches": 7612,
      "ricky": 7613,
      "robin": 7614,
      "##haun": 7615,
      "prol": 7616,
      "hoff": 7617,
      "vince": 7618,
      "depending": 7619,
      "unanimous": 7620,
      "##estyle": 7621,
      "hudson": 7622,
      "reveal": 7623,
      "kell": 7624,
      "ease": 7625,
      "cox": 7626,
      "unexp": 7627,
      "193": 7628,
      "reun": 7629,
      "lasted": 7630,
      "##ateful": 7631,
      "research": 7632,
      "mit": 7633,
      "chosen": 7634,
      "kennedy": 7635,
      "ipl": 7636,
      "190": 7637,
      "collected": 7638,
      "collective": 7639,
      "movie": 7640,
      "acquis": 7641,
      "twenty": 7642,
      "youngster": 7643,
      "hiring": 7644,
      "stras": 7645,
      "stafford": 7646,
      "nerv": 7647,
      "benjamin": 7648,
      "clayton": 7649,
      "bun": 7650,
      "visited": 7651,
      "lance": 7652,
      "briefly": 7653,
      "creative": 7654,
      "hayes": 7655,
      "mcm": 7656,
      "##reh": 7657,
      "arnold": 7658,
      "unexpected": 7659,
      "affili": 7660,
      "assess": 7661,
      "##gerald": 7662,
      "guide": 7663,
      "virtual": 7664,
      "hoops": 7665,
      "facilities": 7666,
      "sister": 7667,
      "##aug": 7668,
      "pray": 7669,
      "marcel": 7670,
      "torres": 7671,
      "mak": 7672,
      "haul": 7673,
      "powell": 7674,
      "blank": 7675,
      "fuller": 7676,
      "seam": 7677,
      "reel": 7678,
      "predicted": 7679,
      "ashley": 7680,
      "completion": 7681,
      "##wan": 7682,
      "honda": 7683,
      "ajax": 7684,
      "uncom": 7685,
      "##xton": 7686,
      "ts": 7687,
      "malik": 7688,
      "providence": 7689,
      "inev": 7690,
      "##enter": 7691,
      "sexual": 7692,
      "selling": 7693,
      "posit": 7694,
      "##avid": 7695,
      "lie": 7696,
      "leadoff": 7697,
      "batsman": 7698,
      "109": 7699,
      "##thur": 7700,
      "connection": 7701,
      "reduced": 7702,
      "legitimate": 7703,
      "sny": 7704,
      "whip": 7705,
      "reflect": 7706,
      "represented": 7707,
      "novak": 7708,
      "distract": 7709,
      "wave": 7710,
      "ast": 7711,
      "relay": 7712,
      "bom": 7713,
      "##ppe": 7714,
      "sore": 7715,
      "whites": 7716,
      "newly": 7717,
      "efficiency": 7718,
      "doll": 7719,
      "giannis": 7720,
      "frazier": 7721,
      "wnba": 7722,
      "##rov": 7723,
      "##gl": 7724,
      "viewers": 7725,
      "##llo": 7726,
      "outbreak": 7727,
      "stokes": 7728,
      "folks": 7729,
      "digit": 7730,
      "mba": 7731,
      "tam": 7732,
      "meth": 7733,
      "hanging": 7734,
      "richmond": 7735,
      "serge": 7736,
      "pregame": 7737,
      "guer": 7738,
      "corners": 7739,
      "draws": 7740,
      "hayward": 7741,
      "dressing": 7742,
      "stal": 7743,
      "spotlight": 7744,
      "riders": 7745,
      "welter": 7746,
      "mol": 7747,
      "carrying": 7748,
      "statistics": 7749,
      "##oe": 7750,
      "##known": 7751,
      "cha": 7752,
      "davies": 7753,
      "retain": 7754,
      "ucf": 7755,
      "stepping": 7756,
      "acquire": 7757,
      "battled": 7758,
      "##eers": 7759,
      "tast": 7760,
      "elev": 7761,
      "dillon": 7762,
      "discipline": 7763,
      "goog": 7764,
      "hull": 7765,
      "kc": 7766,
      "watkins": 7767,
      "phase": 7768,
      "tank": 7769,
      "launched": 7770,
      "curtis": 7771,
      "achilles": 7772,
      "deshaun": 7773,
      "flacco": 7774,
      "thorn": 7775,
      "sales": 7776,
      "skate": 7777,
      "unknown": 7778,
      "expensive": 7779,
      "pure": 7780,
      "controversy": 7781,
      "shap": 7782,
      "tempor": 7783,
      "redd": 7784,
      "manuel": 7785,
      "colon": 7786,
      "##oman": 7787,
      "##uses": 7788,
      "pff": 7789,
      "##anson": 7790,
      "##base": 7791,
      "encouraging": 7792,
      "duty": 7793,
      "fouled": 7794,
      "cfl": 7795,
      "ek": 7796,
      "sounders": 7797,
      "motivation": 7798,
      "greens": 7799,
      "##ketball": 7800,
      "discover": 7801,
      "fitzgerald": 7802,
      "carp": 7803,
      "nico": 7804,
      "vert": 7805,
      "burrow": 7806,
      "wanting": 7807,
      "alter": 7808,
      "designed": 7809,
      "niger": 7810,
      "gase": 7811,
      "threes": 7812,
      "##rich": 7813,
      "collegi": 7814,
      "purpose": 7815,
      "restricted": 7816,
      "seth": 7817,
      "aus": 7818,
      "reveals": 7819,
      "postgame": 7820,
      "##iously": 7821,
      "util": 7822,
      "19th": 7823,
      "##worth": 7824,
      "slump": 7825,
      "store": 7826,
      "winds": 7827,
      "##roe": 7828,
      "douglas": 7829,
      "aggies": 7830,
      "dreams": 7831,
      "depend": 7832,
      "fined": 7833,
      "##imeter": 7834,
      "pt": 7835,
      "wig": 7836,
      "para": 7837,
      "marquette": 7838,
      "edelman": 7839,
      "muscle": 7840,
      "rever": 7841,
      "mouth": 7842,
      "umpire": 7843,
      "internet": 7844,
      "kurt": 7845,
      "navy": 7846,
      "singled": 7847,
      "clause": 7848,
      "celebrating": 7849,
      "relax": 7850,
      "affair": 7851,
      "swiss": 7852,
      "relievers": 7853,
      "clint": 7854,
      "merc": 7855,
      "##icial": 7856,
      "qualifier": 7857,
      "woj": 7858,
      "mcdonald": 7859,
      "punches": 7860,
      "conclusion": 7861,
      "schedul": 7862,
      "##din": 7863,
      "isol": 7864,
      "quarant": 7865,
      "strip": 7866,
      "topped": 7867,
      "worthy": 7868,
      "##ilit": 7869,
      "dos": 7870,
      "selections": 7871,
      "mayor": 7872,
      "slowly": 7873,
      "reggie": 7874,
      "booker": 7875,
      "marvin": 7876,
      "nervous": 7877,
      "editor": 7878,
      "bristol": 7879,
      "enters": 7880,
      "variety": 7881,
      "##oria": 7882,
      "##boro": 7883,
      "territ": 7884,
      "myles": 7885,
      "tougher": 7886,
      "hors": 7887,
      "fallen": 7888,
      "stake": 7889,
      "widely": 7890,
      "rosters": 7891,
      "understood": 7892,
      "##amped": 7893,
      "ced": 7894,
      "columbia": 7895,
      "##enny": 7896,
      "blacks": 7897,
      "augusta": 7898,
      "trophies": 7899,
      "##ema": 7900,
      "newcom": 7901,
      "verlander": 7902,
      "expert": 7903,
      "gate": 7904,
      "nickn": 7905,
      "sink": 7906,
      "neutral": 7907,
      "##inney": 7908,
      "daniels": 7909,
      "blown": 7910,
      "sooner": 7911,
      "standards": 7912,
      "tav": 7913,
      "##etted": 7914,
      "beer": 7915,
      "loses": 7916,
      "##usion": 7917,
      "shaq": 7918,
      "dominate": 7919,
      "##zig": 7920,
      "trips": 7921,
      "laid": 7922,
      "##lan": 7923,
      "##cks": 7924,
      "argue": 7925,
      "##otti": 7926,
      "handling": 7927,
      "chapman": 7928,
      "guilty": 7929,
      "##action": 7930,
      "wash": 7931,
      "##atan": 7932,
      "arsene": 7933,
      "vas": 7934,
      "crush": 7935,
      "mclaren": 7936,
      "nowhere": 7937,
      "##ctors": 7938,
      "comparison": 7939,
      "compos": 7940,
      "##icio": 7941,
      "##lled": 7942,
      "dates": 7943,
      "perimeter": 7944,
      "bloom": 7945,
      "##ni": 7946,
      "shir": 7947,
      "anch": 7948,
      "addressed": 7949,
      "execut": 7950,
      "authorities": 7951,
      "##ozan": 7952,
      "bc": 7953,
      "predic": 7954,
      "##dt": 7955,
      "rumours": 7956,
      "experts": 7957,
      "##ading": 7958,
      "belgian": 7959,
      "thousands": 7960,
      "factors": 7961,
      "shoes": 7962,
      "##iner": 7963,
      "confer": 7964,
      "derozan": 7965,
      "blowout": 7966,
      "church": 7967,
      "##lined": 7968,
      "arrow": 7969,
      "hawai": 7970,
      "dana": 7971,
      "shares": 7972,
      "webb": 7973,
      "roughly": 7974,
      "admit": 7975,
      "quarterfinal": 7976,
      "hammer": 7977,
      "indies": 7978,
      "fortunate": 7979,
      "fb": 7980,
      "scottish": 7981,
      "buzzer": 7982,
      "ct": 7983,
      "##iration": 7984,
      "##gb": 7985,
      "##vi": 7986,
      "doctor": 7987,
      "unus": 7988,
      "outfit": 7989,
      "grid": 7990,
      "114": 7991,
      "vern": 7992,
      "projections": 7993,
      "gang": 7994,
      "##manuel": 7995,
      "fullback": 7996,
      "honour": 7997,
      "indicated": 7998,
      "everywhere": 7999,
      "battles": 8000,
      "sacrifice": 8001,
      "quit": 8002,
      "##utions": 8003,
      "covering": 8004,
      "unfortunate": 8005,
      "millions": 8006,
      "fier": 8007,
      "##cot": 8008,
      "tent": 8009,
      "portugues": 8010,
      "slugg": 8011,
      "scenes": 8012,
      "lonzo": 8013,
      "clinched": 8014,
      "tore": 8015,
      "recording": 8016,
      "byu": 8017,
      "##makers": 8018,
      "dominating": 8019,
      "instit": 8020,
      "duties": 8021,
      "##ropriate": 8022,
      "mindset": 8023,
      "bj": 8024,
      "jane": 8025,
      "stakes": 8026,
      "fourn": 8027,
      "signature": 8028,
      "lp": 8029,
      "tatum": 8030,
      "portuguese": 8031,
      "koep": 8032,
      "japanese": 8033,
      "lampard": 8034,
      "owns": 8035,
      "machine": 8036,
      "betts": 8037,
      "grateful": 8038,
      "uncertainty": 8039,
      "mccaff": 8040,
      "halfway": 8041,
      "achieved": 8042,
      "industry": 8043,
      "boone": 8044,
      "deciding": 8045,
      "eri": 8046,
      "jama": 8047,
      "sick": 8048,
      "##friend": 8049,
      "gymnast": 8050,
      "feat": 8051,
      "mariota": 8052,
      "premiers": 8053,
      "bother": 8054,
      "stol": 8055,
      "equip": 8056,
      "contain": 8057,
      "dozen": 8058,
      "dixon": 8059,
      "occurred": 8060,
      "colombia": 8061,
      "collegiate": 8062,
      "leip": 8063,
      "waivers": 8064,
      "nu": 8065,
      "##fts": 8066,
      "crimson": 8067,
      "gotta": 8068,
      "crossed": 8069,
      "##lock": 8070,
      "moscow": 8071,
      "sugg": 8072,
      "sight": 8073,
      "encounter": 8074,
      "ezek": 8075,
      "pats": 8076,
      "francis": 8077,
      "deeper": 8078,
      "##ameyang": 8079,
      "##bark": 8080,
      "shop": 8081,
      "aubameyang": 8082,
      "rend": 8083,
      "1994": 8084,
      "gardner": 8085,
      "##ctions": 8086,
      "##atched": 8087,
      "##enzie": 8088,
      "wells": 8089,
      "suggests": 8090,
      "salv": 8091,
      "julio": 8092,
      "ezekiel": 8093,
      "koepka": 8094,
      "landry": 8095,
      "reference": 8096,
      "wow": 8097,
      "convinced": 8098,
      "cats": 8099,
      "apiece": 8100,
      "shocked": 8101,
      "smooth": 8102,
      "minors": 8103,
      "lbs": 8104,
      "scoreboard": 8105,
      "boyd": 8106,
      "kos": 8107,
      "##thr": 8108,
      "ist": 8109,
      "cage": 8110,
      "anders": 8111,
      "involve": 8112,
      "##wayne": 8113,
      "##ika": 8114,
      "lawsuit": 8115,
      "##ems": 8116,
      "##ondo": 8117,
      "##vant": 8118,
      "figured": 8119,
      "technique": 8120,
      "##oli": 8121,
      "aven": 8122,
      "netted": 8123,
      "arrive": 8124,
      "chile": 8125,
      "gp": 8126,
      "chest": 8127,
      "##ecast": 8128,
      "peak": 8129,
      "##ori": 8130,
      "lf": 8131,
      "##vay": 8132,
      "wilder": 8133,
      "surface": 8134,
      "ballpark": 8135,
      "importantly": 8136,
      "##kes": 8137,
      "welterweight": 8138,
      "gallery": 8139,
      "google": 8140,
      "freshmen": 8141,
      "##oval": 8142,
      "##uguay": 8143,
      "larger": 8144,
      "document": 8145,
      "butt": 8146,
      "##lon": 8147,
      "nou": 8148,
      "##state": 8149,
      "pursue": 8150,
      "tweets": 8151,
      "jennings": 8152,
      "##cr": 8153,
      "fumbles": 8154,
      "cer": 8155,
      "fres": 8156,
      "charity": 8157,
      "attempting": 8158,
      "sharing": 8159,
      "cliff": 8160,
      "language": 8161,
      "whistle": 8162,
      "needing": 8163,
      "uruguay": 8164,
      "surprisingly": 8165,
      "##eech": 8166,
      "##iri": 8167,
      "warning": 8168,
      "##estone": 8169,
      "##bled": 8170,
      "uses": 8171,
      "21st": 8172,
      "aguero": 8173,
      "albion": 8174,
      "##elled": 8175,
      "timeout": 8176,
      "gomez": 8177,
      "catal": 8178,
      "##mouth": 8179,
      "##gg": 8180,
      "tears": 8181,
      "cups": 8182,
      "raj": 8183,
      "##quir": 8184,
      "poised": 8185,
      "weapon": 8186,
      "rack": 8187,
      "welcom": 8188,
      "reynolds": 8189,
      "ski": 8190,
      "inches": 8191,
      "slipped": 8192,
      "darius": 8193,
      "doctors": 8194,
      "indycar": 8195,
      "aid": 8196,
      "offence": 8197,
      "unve": 8198,
      "strasburg": 8199,
      "education": 8200,
      "investment": 8201,
      "fang": 8202,
      "embed": 8203,
      "noise": 8204,
      "##unte": 8205,
      "mcvay": 8206,
      "challenged": 8207,
      "upgrade": 8208,
      "registered": 8209,
      "mask": 8210,
      "info": 8211,
      "downtown": 8212,
      "##ezmann": 8213,
      "mcdavid": 8214,
      "territory": 8215,
      "offs": 8216,
      "treated": 8217,
      "infielder": 8218,
      "gent": 8219,
      "solution": 8220,
      "##ahl": 8221,
      "withdraw": 8222,
      "##orth": 8223,
      "consideration": 8224,
      "inex": 8225,
      "portion": 8226,
      "turnaround": 8227,
      "##eastern": 8228,
      "fare": 8229,
      "anticipated": 8230,
      "knox": 8231,
      "speech": 8232,
      "lately": 8233,
      "fish": 8234,
      "kol": 8235,
      "116": 8236,
      "leipzig": 8237,
      "corps": 8238,
      "presum": 8239,
      "traffic": 8240,
      "additions": 8241,
      "angry": 8242,
      "tone": 8243,
      "pp": 8244,
      "harvick": 8245,
      "batted": 8246,
      "classes": 8247,
      "##aire": 8248,
      "holland": 8249,
      "patient": 8250,
      "averages": 8251,
      "maximum": 8252,
      "gasol": 8253,
      "successive": 8254,
      "dip": 8255,
      "##rosse": 8256,
      "resour": 8257,
      "griezmann": 8258,
      "robbie": 8259,
      "pulis": 8260,
      "sealed": 8261,
      "160": 8262,
      "grace": 8263,
      "corm": 8264,
      "rider": 8265,
      "rebuilding": 8266,
      "wrap": 8267,
      "##ux": 8268,
      "princip": 8269,
      "attorney": 8270,
      "follows": 8271,
      "panel": 8272,
      "slate": 8273,
      "doors": 8274,
      "philos": 8275,
      "governing": 8276,
      "##uy": 8277,
      "##encing": 8278,
      "mcn": 8279,
      "pivot": 8280,
      "##uire": 8281,
      "##dan": 8282,
      "trained": 8283,
      "premiership": 8284,
      "homest": 8285,
      "formation": 8286,
      "holly": 8287,
      "henrik": 8288,
      "method": 8289,
      "petersburg": 8290,
      "##izon": 8291,
      "feather": 8292,
      "rear": 8293,
      "mission": 8294,
      "klay": 8295,
      "invitational": 8296,
      "shout": 8297,
      "shawn": 8298,
      "haskins": 8299,
      "xf": 8300,
      "##ole": 8301,
      "decisive": 8302,
      "##odes": 8303,
      "sab": 8304,
      "melvin": 8305,
      "gi": 8306,
      "##astr": 8307,
      "volunte": 8308,
      "loft": 8309,
      "##onym": 8310,
      "clip": 8311,
      "vi": 8312,
      "apply": 8313,
      "simpson": 8314,
      "##abe": 8315,
      "chemistry": 8316,
      "##raid": 8317,
      "philip": 8318,
      "angle": 8319,
      "##uber": 8320,
      "competed": 8321,
      "##hs": 8322,
      "lynn": 8323,
      "tanne": 8324,
      "cot": 8325,
      "##tl": 8326,
      "##yees": 8327,
      "meter": 8328,
      "targeted": 8329,
      "earnhardt": 8330,
      "hearts": 8331,
      "##orms": 8332,
      "semin": 8333,
      "##eps": 8334,
      "argentine": 8335,
      "offenses": 8336,
      "pose": 8337,
      "commercial": 8338,
      "employees": 8339,
      "zl": 8340,
      "##ensen": 8341,
      "hes": 8342,
      "compreh": 8343,
      "banner": 8344,
      "conversations": 8345,
      "tannehill": 8346,
      "ozil": 8347,
      "honored": 8348,
      "signal": 8349,
      "##enh": 8350,
      "chevr": 8351,
      "maddon": 8352,
      "##tha": 8353,
      "intense": 8354,
      "bradford": 8355,
      "shoots": 8356,
      "male": 8357,
      "6th": 8358,
      "rust": 8359,
      "rab": 8360,
      "dwight": 8361,
      "discusses": 8362,
      "##card": 8363,
      "underway": 8364,
      "advers": 8365,
      "##uts": 8366,
      "rip": 8367,
      "invited": 8368,
      "cardinal": 8369,
      "skid": 8370,
      "##stown": 8371,
      "counts": 8372,
      "7th": 8373,
      "closely": 8374,
      "motion": 8375,
      "##rain": 8376,
      "kap": 8377,
      "hicks": 8378,
      "caliber": 8379,
      "philosoph": 8380,
      "clown": 8381,
      "bruyne": 8382,
      "knocking": 8383,
      "newslet": 8384,
      "##ittany": 8385,
      "##24": 8386,
      "slugger": 8387,
      "underw": 8388,
      "##inge": 8389,
      "eden": 8390,
      "##urg": 8391,
      "##getown": 8392,
      "gul": 8393,
      "welsh": 8394,
      "conferences": 8395,
      "jamal": 8396,
      "impression": 8397,
      "lengthy": 8398,
      "colise": 8399,
      "watches": 8400,
      "drum": 8401,
      "##works": 8402,
      "trig": 8403,
      "reminder": 8404,
      "qualification": 8405,
      "lacrosse": 8406,
      "monitor": 8407,
      "corre": 8408,
      "ig": 8409,
      "khal": 8410,
      "mauricio": 8411,
      "conley": 8412,
      "threatened": 8413,
      "##inka": 8414,
      "coliseum": 8415,
      "##lam": 8416,
      "renew": 8417,
      "##oses": 8418,
      "##east": 8419,
      "entertaining": 8420,
      "preferred": 8421,
      "cormier": 8422,
      "therefore": 8423,
      "verst": 8424,
      "130": 8425,
      "assume": 8426,
      "bi": 8427,
      "dollars": 8428,
      "700": 8429,
      "gilbert": 8430,
      "trave": 8431,
      "fs1": 8432,
      "epic": 8433,
      "informed": 8434,
      "chevrolet": 8435,
      "packed": 8436,
      "##30": 8437,
      "##berry": 8438,
      "terrell": 8439,
      "setback": 8440,
      "rib": 8441,
      "restaur": 8442,
      "enh": 8443,
      "remembered": 8444,
      "clarke": 8445,
      "##li": 8446,
      "clim": 8447,
      "raced": 8448,
      "myst": 8449,
      "dating": 8450,
      "yu": 8451,
      "##otten": 8452,
      "##rees": 8453,
      "intended": 8454,
      "repair": 8455,
      "eventual": 8456,
      "stadiums": 8457,
      "##asingly": 8458,
      "emotions": 8459,
      "illustrated": 8460,
      "schefter": 8461,
      "initi": 8462,
      "##pedes": 8463,
      "1992": 8464,
      "ing": 8465,
      "unrest": 8466,
      "cespedes": 8467,
      "cord": 8468,
      "##angelo": 8469,
      "whoever": 8470,
      "reads": 8471,
      "##ila": 8472,
      "dijk": 8473,
      "interference": 8474,
      "blind": 8475,
      "georgetown": 8476,
      "increasingly": 8477,
      "flores": 8478,
      "fedex": 8479,
      "finalist": 8480,
      "thin": 8481,
      "##eties": 8482,
      "##aj": 8483,
      "emergency": 8484,
      "ejected": 8485,
      "truck": 8486,
      "delighted": 8487,
      "##qvist": 8488,
      "emotion": 8489,
      "madness": 8490,
      "nikola": 8491,
      "identity": 8492,
      "noticed": 8493,
      "##ultz": 8494,
      "##rad": 8495,
      "audience": 8496,
      "peace": 8497,
      "constantly": 8498,
      "besides": 8499,
      "patience": 8500,
      "mum": 8501,
      "bone": 8502,
      "##ibilities": 8503,
      "escape": 8504,
      "bath": 8505,
      "##iu": 8506,
      "hs": 8507,
      "closest": 8508,
      "plane": 8509,
      "##iba": 8510,
      "racial": 8511,
      "joke": 8512,
      "##herford": 8513,
      "rol": 8514,
      "cancelled": 8515,
      "insurance": 8516,
      "##ques": 8517,
      "inaug": 8518,
      "typical": 8519,
      "denmark": 8520,
      "vog": 8521,
      "slated": 8522,
      "odi": 8523,
      "##onta": 8524,
      "ideas": 8525,
      "desmond": 8526,
      "divers": 8527,
      "legends": 8528,
      "ruling": 8529,
      "hint": 8530,
      "##gm": 8531,
      "##ews": 8532,
      "disaster": 8533,
      "strengths": 8534,
      "veon": 8535,
      "political": 8536,
      "holder": 8537,
      "isaac": 8538,
      "offside": 8539,
      "highs": 8540,
      "nb": 8541,
      "117": 8542,
      "accurate": 8543,
      "fran": 8544,
      "explo": 8545,
      "tipped": 8546,
      "vernon": 8547,
      "afraid": 8548,
      "rapids": 8549,
      "seeds": 8550,
      "flaw": 8551,
      "bosa": 8552,
      "bolster": 8553,
      "dhoni": 8554,
      "mccaffrey": 8555,
      "delivery": 8556,
      "fake": 8557,
      "##pi": 8558,
      "unn": 8559,
      "broadcas": 8560,
      "##16": 8561,
      "canes": 8562,
      "inconsistent": 8563,
      "brace": 8564,
      "showcase": 8565,
      "jarrett": 8566,
      "logo": 8567,
      "##pan": 8568,
      "arlington": 8569,
      "##aces": 8570,
      "1993": 8571,
      "##uve": 8572,
      "globe": 8573,
      "yankee": 8574,
      "proposed": 8575,
      "discussing": 8576,
      "stolen": 8577,
      "noting": 8578,
      "tiebre": 8579,
      "ax": 8580,
      "##uchel": 8581,
      "170": 8582,
      "kendrick": 8583,
      "lal": 8584,
      "overlook": 8585,
      "announcing": 8586,
      "victim": 8587,
      "contributions": 8588,
      "##eler": 8589,
      "##uals": 8590,
      "parade": 8591,
      "##oke": 8592,
      "font": 8593,
      "##unning": 8594,
      "##caps": 8595,
      "rutherford": 8596,
      "file": 8597,
      "wich": 8598,
      "spectators": 8599,
      "elected": 8600,
      "##etti": 8601,
      "snyder": 8602,
      "driven": 8603,
      "dwayne": 8604,
      "assuming": 8605,
      "lut": 8606,
      "##umbled": 8607,
      "finalists": 8608,
      "##eder": 8609,
      "hawaii": 8610,
      "##rard": 8611,
      "veh": 8612,
      "shea": 8613,
      "abc": 8614,
      "sprained": 8615,
      "##phers": 8616,
      "praised": 8617,
      "middleweight": 8618,
      "michel": 8619,
      "3s": 8620,
      "singh": 8621,
      "nap": 8622,
      "teenager": 8623,
      "cj": 8624,
      "proced": 8625,
      "favourites": 8626,
      "photograph": 8627,
      "atp": 8628,
      "stole": 8629,
      "##imal": 8630,
      "##verde": 8631,
      "##izar": 8632,
      "digital": 8633,
      "##ribune": 8634,
      "stein": 8635,
      "champs": 8636,
      "##enna": 8637,
      "gophers": 8638,
      "bend": 8639,
      "defenceman": 8640,
      "reyes": 8641,
      "vertical": 8642,
      "racism": 8643,
      "##derm": 8644,
      "sympt": 8645,
      "enth": 8646,
      "##chan": 8647,
      "parties": 8648,
      "wrapped": 8649,
      "synd": 8650,
      "##gart": 8651,
      "pett": 8652,
      "##elines": 8653,
      "glas": 8654,
      "lexington": 8655,
      "mcle": 8656,
      "qbs": 8657,
      "staples": 8658,
      "conditioning": 8659,
      "element": 8660,
      "quin": 8661,
      "##dom": 8662,
      "herman": 8663,
      "##brough": 8664,
      "freedom": 8665,
      "##oub": 8666,
      "##lay": 8667,
      "##san": 8668,
      "##mag": 8669,
      "springs": 8670,
      "dunn": 8671,
      "swinging": 8672,
      "manner": 8673,
      "holmes": 8674,
      "pye": 8675,
      "sticking": 8676,
      "##itzki": 8677,
      "weber": 8678,
      "drafting": 8679,
      "une": 8680,
      "##alth": 8681,
      "touched": 8682,
      "##eny": 8683,
      "wondering": 8684,
      "gust": 8685,
      "##zuk": 8686,
      "popovich": 8687,
      "elimination": 8688,
      "measures": 8689,
      "##aux": 8690,
      "gest": 8691,
      "arriving": 8692,
      "bolt": 8693,
      "generated": 8694,
      "pg": 8695,
      "plain": 8696,
      "##appen": 8697,
      "firmino": 8698,
      "podcasts": 8699,
      "180": 8700,
      "adapt": 8701,
      "jumping": 8702,
      "jed": 8703,
      "##otic": 8704,
      "posts": 8705,
      "##rington": 8706,
      "lorenzo": 8707,
      "rousey": 8708,
      "sta": 8709,
      "eriks": 8710,
      "controlled": 8711,
      "##strong": 8712,
      "virtually": 8713,
      "coinc": 8714,
      "luka": 8715,
      "118": 8716,
      "sv": 8717,
      "mbappe": 8718,
      "##ean": 8719,
      "swift": 8720,
      "##eldon": 8721,
      "egy": 8722,
      "##asi": 8723,
      "##lee": 8724,
      "##erts": 8725,
      "views": 8726,
      "implement": 8727,
      "newsp": 8728,
      "##ifts": 8729,
      "##ui": 8730,
      "shine": 8731,
      "heights": 8732,
      "proposal": 8733,
      "##ecess": 8734,
      "##ighton": 8735,
      "repeatedly": 8736,
      "equipment": 8737,
      "cough": 8738,
      "##hm": 8739,
      "1990": 8740,
      "ashes": 8741,
      "feelings": 8742,
      "##atter": 8743,
      "dominic": 8744,
      "transfers": 8745,
      "attacks": 8746,
      "concent": 8747,
      "checked": 8748,
      "bris": 8749,
      "cornerbacks": 8750,
      "##etta": 8751,
      "##annon": 8752,
      "vast": 8753,
      "underdog": 8754,
      "lockdown": 8755,
      "favored": 8756,
      "wichita": 8757,
      "protocol": 8758,
      "##inct": 8759,
      "##ayette": 8760,
      "realistic": 8761,
      "advert": 8762,
      "newspap": 8763,
      "khan": 8764,
      "slider": 8765,
      "schwart": 8766,
      "gerrard": 8767,
      "##ware": 8768,
      "underwent": 8769,
      "6a": 8770,
      "awk": 8771,
      "cycling": 8772,
      "oldest": 8773,
      "relative": 8774,
      "oscar": 8775,
      "bowman": 8776,
      "ling": 8777,
      "counting": 8778,
      "baldwin": 8779,
      "organis": 8780,
      "herrera": 8781,
      "chamber": 8782,
      "egypt": 8783,
      "burke": 8784,
      "anto": 8785,
      "genu": 8786,
      "waiver": 8787,
      "asu": 8788,
      "euros": 8789,
      "gregg": 8790,
      "represents": 8791,
      "##illing": 8792,
      "mode": 8793,
      "intell": 8794,
      "ud": 8795,
      "cald": 8796,
      "shocking": 8797,
      "##awn": 8798,
      "chant": 8799,
      "induct": 8800,
      "spokesman": 8801,
      "##erv": 8802,
      "arthur": 8803,
      "awkward": 8804,
      "tossed": 8805,
      "##closed": 8806,
      "suprem": 8807,
      "costs": 8808,
      "bitter": 8809,
      "patric": 8810,
      "##acks": 8811,
      "gav": 8812,
      "thumb": 8813,
      "safeties": 8814,
      "25th": 8815,
      "weapons": 8816,
      "##ongchang": 8817,
      "primarily": 8818,
      "damian": 8819,
      "berry": 8820,
      "##ables": 8821,
      "##amm": 8822,
      "##owed": 8823,
      "gmt": 8824,
      "hid": 8825,
      "fas": 8826,
      "lit": 8827,
      "deport": 8828,
      "iconic": 8829,
      "outd": 8830,
      "bah": 8831,
      "##14": 8832,
      "pyeongchang": 8833,
      "pi": 8834,
      "zlatan": 8835,
      "franco": 8836,
      "##opher": 8837,
      "uniforms": 8838,
      "##cco": 8839,
      "##arm": 8840,
      "davidson": 8841,
      "cc": 8842,
      "hundreds": 8843,
      "performing": 8844,
      "seminoles": 8845,
      "undergo": 8846,
      "hi": 8847,
      "nats": 8848,
      "anytime": 8849,
      "##anded": 8850,
      "fcs": 8851,
      "inaugural": 8852,
      "asian": 8853,
      "##orious": 8854,
      "juve": 8855,
      "##ailoa": 8856,
      "protests": 8857,
      "farrell": 8858,
      "verstappen": 8859,
      "##ivo": 8860,
      "##idi": 8861,
      "outlook": 8862,
      "regarded": 8863,
      "##etic": 8864,
      "##giving": 8865,
      "##ked": 8866,
      "msu": 8867,
      "kamara": 8868,
      "##pc": 8869,
      "adjustments": 8870,
      "ine": 8871,
      "aspect": 8872,
      "strained": 8873,
      "stephens": 8874,
      "900": 8875,
      "##omer": 8876,
      "lpga": 8877,
      "205": 8878,
      "nab": 8879,
      "boast": 8880,
      "viewed": 8881,
      "##alke": 8882,
      "ship": 8883,
      "fernand": 8884,
      "thrilling": 8885,
      "squads": 8886,
      "ramp": 8887,
      "captured": 8888,
      "fold": 8889,
      "tagov": 8890,
      "##ali": 8891,
      "##enez": 8892,
      "hoos": 8893,
      "periods": 8894,
      "practicing": 8895,
      "rex": 8896,
      "villar": 8897,
      "kro": 8898,
      "false": 8899,
      "giroud": 8900,
      "skip": 8901,
      "pill": 8902,
      "##beau": 8903,
      "skin": 8904,
      "user": 8905,
      "##ocity": 8906,
      "pro32": 8907,
      "##leman": 8908,
      "tagovailoa": 8909,
      "reck": 8910,
      "##mm": 8911,
      "courts": 8912,
      "reverse": 8913,
      "bort": 8914,
      "vand": 8915,
      "unpre": 8916,
      "unusual": 8917,
      "humph": 8918,
      "##iao": 8919,
      "afterward": 8920,
      "notably": 8921,
      "convert": 8922,
      "conversion": 8923,
      "##power": 8924,
      "newman": 8925,
      "aces": 8926,
      "replied": 8927,
      "prev": 8928,
      "differently": 8929,
      "##rance": 8930,
      "punter": 8931,
      "morata": 8932,
      "wals": 8933,
      "##through": 8934,
      "##enberg": 8935,
      "bump": 8936,
      "surge": 8937,
      "cycle": 8938,
      "##sc": 8939,
      "nrl": 8940,
      "qualifiers": 8941,
      "fate": 8942,
      "nat": 8943,
      "shirts": 8944,
      "fitting": 8945,
      "nigeria": 8946,
      "chronicle": 8947,
      "devastating": 8948,
      "##udi": 8949,
      "##15": 8950,
      "motivated": 8951,
      "kes": 8952,
      "neville": 8953,
      "dive": 8954,
      "liv": 8955,
      "specialist": 8956,
      "kitch": 8957,
      "cobb": 8958,
      "sought": 8959,
      "kier": 8960,
      "tick": 8961,
      "hardest": 8962,
      "fbs": 8963,
      "bengal": 8964,
      "caution": 8965,
      "compare": 8966,
      "gea": 8967,
      "reasonable": 8968,
      "backing": 8969,
      "nightm": 8970,
      "##basketball": 8971,
      "##put": 8972,
      "bam": 8973,
      "truex": 8974,
      "midfielders": 8975,
      "indef": 8976,
      "##tv": 8977,
      "##isions": 8978,
      "##mie": 8979,
      "caleb": 8980,
      "sequ": 8981,
      "##ennial": 8982,
      "matching": 8983,
      "rudolph": 8984,
      "jame": 8985,
      "30th": 8986,
      "filling": 8987,
      "dee": 8988,
      "structure": 8989,
      "##inations": 8990,
      "civ": 8991,
      "fresno": 8992,
      "pip": 8993,
      "attribut": 8994,
      "##13": 8995,
      "##agher": 8996,
      "##elu": 8997,
      "lacking": 8998,
      "##asley": 8999,
      "##olved": 9000,
      "##uana": 9001,
      "kuznet": 9002,
      "shoulders": 9003,
      "jayson": 9004,
      "forces": 9005,
      "##emed": 9006,
      "soci": 9007,
      "wheeler": 9008,
      "ze": 9009,
      "luxury": 9010,
      "##ows": 9011,
      "benefits": 9012,
      "bowlers": 9013,
      "kuznetso": 9014,
      "##ease": 9015,
      "##osh": 9016,
      "owens": 9017,
      "##23": 9018,
      "fears": 9019,
      "olsen": 9020,
      "hav": 9021,
      "proving": 9022,
      "routes": 9023,
      "ng": 9024,
      "##uma": 9025,
      "##ras": 9026,
      "bodies": 9027,
      "camera": 9028,
      "bleacher": 9029,
      "antoine": 9030,
      "consol": 9031,
      "norris": 9032,
      "jaylen": 9033,
      "shadow": 9034,
      "rushers": 9035,
      "kess": 9036,
      "##usk": 9037,
      "duff": 9038,
      "equally": 9039,
      "enthus": 9040,
      "escap": 9041,
      "vars": 9042,
      "pab": 9043,
      "securing": 9044,
      "comprehensive": 9045,
      "andr": 9046,
      "fool": 9047,
      "dab": 9048,
      "icc": 9049,
      "diagnosed": 9050,
      "annivers": 9051,
      "xfinity": 9052,
      "##ppers": 9053,
      "exceed": 9054,
      "writes": 9055,
      "rejected": 9056,
      "notch": 9057,
      "sample": 9058,
      "##lein": 9059,
      "incomp": 9060,
      "messages": 9061,
      "jak": 9062,
      "doublehead": 9063,
      "##uce": 9064,
      "naturally": 9065,
      "rodney": 9066,
      "appearing": 9067,
      "##elps": 9068,
      "##rique": 9069,
      "roof": 9070,
      "kit": 9071,
      "lloyd": 9072,
      "taste": 9073,
      "##gee": 9074,
      "jerome": 9075,
      "jags": 9076,
      "caldwell": 9077,
      "flowers": 9078,
      "bm": 9079,
      "highlighted": 9080,
      "nagy": 9081,
      "dion": 9082,
      "##mz": 9083,
      "javier": 9084,
      "##aheem": 9085,
      "##ige": 9086,
      "santana": 9087,
      "dell": 9088,
      "begun": 9089,
      "##zingis": 9090,
      "kor": 9091,
      "##beit": 9092,
      "##aver": 9093,
      "valent": 9094,
      "mall": 9095,
      "thrilled": 9096,
      "featherweight": 9097,
      "tanner": 9098,
      "citiz": 9099,
      "8th": 9100,
      "unh": 9101,
      "kuch": 9102,
      "slo": 9103,
      "##iction": 9104,
      "##aya": 9105,
      "avoided": 9106,
      "porzingis": 9107,
      "waived": 9108,
      "##icted": 9109,
      "mood": 9110,
      "lifetime": 9111,
      "##lu": 9112,
      "individuals": 9113,
      "kyr": 9114,
      "##hire": 9115,
      "goalsc": 9116,
      "patch": 9117,
      "##aders": 9118,
      "puig": 9119,
      "quint": 9120,
      "rico": 9121,
      "adri": 9122,
      "hamlin": 9123,
      "##usen": 9124,
      "asset": 9125,
      "bernard": 9126,
      "stitch": 9127,
      "absent": 9128,
      "lak": 9129,
      "##areness": 9130,
      "145": 9131,
      "topic": 9132,
      "quarantine": 9133,
      "complicated": 9134,
      "budget": 9135,
      "beth": 9136,
      "context": 9137,
      "##borough": 9138,
      "projects": 9139,
      "carol": 9140,
      "correa": 9141,
      "optimism": 9142,
      "zion": 9143,
      "elway": 9144,
      "kaz": 9145,
      "gau": 9146,
      "camps": 9147,
      "dinner": 9148,
      "hesit": 9149,
      "nicolas": 9150,
      "anniversary": 9151,
      "22nd": 9152,
      "accuracy": 9153,
      "santiago": 9154,
      "decline": 9155,
      "yield": 9156,
      "awareness": 9157,
      "guidelines": 9158,
      "lunch": 9159,
      "horses": 9160,
      "119": 9161,
      "##bane": 9162,
      "mechan": 9163,
      "prose": 9164,
      "mans": 9165,
      "##ruption": 9166,
      "diggs": 9167,
      "##isl": 9168,
      "extending": 9169,
      "trigger": 9170,
      "echo": 9171,
      "jokic": 9172,
      "lem": 9173,
      "newsletter": 9174,
      "nail": 9175,
      "beasley": 9176,
      "lists": 9177,
      "restrictions": 9178,
      "##sson": 9179,
      "strongly": 9180,
      "##vic": 9181,
      "vul": 9182,
      "realized": 9183,
      "eve": 9184,
      "##oooo": 9185,
      "adop": 9186,
      "moss": 9187,
      "sque": 9188,
      "communication": 9189,
      "endured": 9190,
      "stuart": 9191,
      "philippe": 9192,
      "symptoms": 9193,
      "holy": 9194,
      "align": 9195,
      "gamecock": 9196,
      "overc": 9197,
      "pond": 9198,
      "demands": 9199,
      "embarrassing": 9200,
      "9th": 9201,
      "pairing": 9202,
      "ceiling": 9203,
      "christopher": 9204,
      "dry": 9205,
      "whiteside": 9206,
      "auto": 9207,
      "facts": 9208,
[...]
