[PAD]
[UNK]
[CLS]
[SEP]
[MASK]
!
"
#
$
%
&
'
(
)
*
+
,
-
.
/
0
1
2
3
4
5
6
7
8
9
:
;
<
=
>
?
@
[
\
]
^
_
`
a
b
c
d
e
f
g
h
i
j
k
l
m
n
o
p
q
r
s
t
u
v
w
x
y
z
{
|
}
~
##n
##0
##r
##i
##l
##g
##j
##k
##t
##o
##m
##y
##w
##s
##p
##a
##e
##8
##4
##u
##b
##7
##q
##d
##z
##x
##f
##5
##v
##6
##1
##h
##9
##c
##3
##2
th
##er
##in
the
##on
##or
##en
##an
##ed
##es
##ing
##ar
##at
to
##nd
##as
in
##al
##it
##ou
##is
and
of
##am
##ay
##ll
##re
##om
##ic
##st
##ac
##et
on
##el
##ot
st
##ad
##ut
##id
be
for
##le
##ow
##ion
##ve
##ig
##ur
wh
he
##ent
re
se
##ter
##ir
##ith
##ly
##ch
##ers
with
that
at
it
##im
pl
is
##ver
##ill
##ld
##os
we
his
was
##th
an
##igh
play
as
##ce
le
de
##ag
fr
ch
##ts
##ack
go
##ak
pr
ha
##all
##ere
##ain
gam
ne
20
te
sh
##ard
##ol
##and
##se
##est
##un
com
##ight
but
##il
con
##ason
##ri
##ore
this
sp
##pp
##ast
##ear
have
su
has
sa
##ive
co
##ct
team
you
##od
al
will
from
##ould
game
ag
season
br
##us
tr
tw
##ess
##ust
##ate
##art
not
##ue
##ke
201
po
##ation
##gh
year
out
all
##ff
they
##our
##ul
##ick
off
af
up
##ant
##ie
by
are
said
##ok
fir
##day
##ome
##ach
win
first
lo
after
##ort
ex
cl
tim
##ck
li
##op
##out
##ound
##ab
##em
one
##um
ro
who
ab
their
##own
so
##iv
fin
fo
sc
##ans
##ra
##ning
had
##ree
##ond
##end
##ough
wor
un
qu
##ally
or
again
over
can
##ity
back
do
two
##ich
no
get
##av
##ine
##ap
new
man
##ia
mo
ar
def
##ake
more
just
##amp
en
him
last
##ist
##ions
pro
poin
##ect
##ge
time
when
##ens
##ies
##ek
##ft
##ball
been
##ide
per
sec
car
##atch
##ong
mar
cont
##ord
ad
##her
there
##ip
against
##urn
##ber
##one
##als
me
fe
##son
##to
10
week
jo
##cc
##mp
##eld
run
if
##ep
##ub
second
##ven
gr
kn
three
##au
##act
##ass
leag
##so
games
##ace
##ose
what
four
##ame
##ton
us
would
##ro
league
##man
##ade
##mer
##ian
##ely
##oss
bo
about
coach
op
##ish
were
rec
##ays
bl
##ield
start
pre
ever
##ile
players
some
##up
##if
how
like
##ud
##ence
min
rep
gu
##oun
did
also
cr
##ings
##uch
than
##ous
##ting
##land
##age
could
##ment
comp
foot
thr
gre
into
bas
exp
##arter
bec
##ix
##ated
##ice
good
##ink
look
mon
ke
##orts
end
big
##ull
going
points
##ble
now
ho
state
##ory
19
##ite
##fl
bet
##hing
##ure
##fore
champ
which
##ry
##ards
dur
ph
before
lead
##ins
sch
only
##ah
scor
str
di
##cl
##ance
##ense
##ign
##back
res
##ther
##ial
any
##ug
fl
##ier
##qu
##able
down
##iss
my
ser
them
top
und
every
high
imp
##tt
inter
##ner
app
football
hit
##ary
##we
##ict
best
during
player
##ition
while
nfl
right
##les
##ors
12
quarter
##iz
ret
##ets
ear
##ys
star
most
11
ve
ap
##ks
line
##sp
got
day
think
##ird
make
##let
made
##io
open
may
ball
##ec
##ince
round
##pt
##ensive
don
##xt
world
inj
sports
under
##aw
match
am
##itt
injur
final
dra
won
need
well
##ang
home
hal
##ind
five
still
way
##ause
pass
know
##ery
##anc
six
bot
##ving
goal
other
left
bu
even
since
years
champions
dec
our
##ited
##ne
teams
next
dis
##ues
##itch
##ved
##elp
head
##atur
work
part
then
##aking
ind
her
care
here
sl
field
rel
##hip
see
##ail
##nes
##itter
through
pick
##ady
third
aw
##ves
conf
##ba
night
##ool
because
add
cle
ste
long
club
red
##other
##vel
twitter
##llow
want
##ris
rem
##att
##00
des
take
##ank
bre
##ced
point
##ious
##alk
att
15
its
should
great
played
ma
2019
much
##br
miss
##ire
being
##off
##ock
##vent
city
cent
half
##uck
ll
put
old
coll
13
sm
acc
sign
really
##ston
tri
where
shot
minut
set
both
bel
reg
par
el
14
though
##tain
lot
sund
career
she
ben
##per
##ates
##urs
##gr
##hn
pat
yards
##ty
hand
nation
cup
16
mi
rece
##ward
another
pe
show
##ult
##ley
##ision
draft
playing
##for
satur
saturday
##ams
those
bar
##ase
follow
very
pos
2018
##urr
sunday
##led
mill
202
wr
ass
finish
cor
return
cap
##ov
john
tit
help
vs
##clud
##ffer
##ester
does
eng
opp
post
##ating
pitch
##az
fans
bow
18
happ
17
come
##ash
30
mid
ed
record
##erson
col
nor
didn
act
##cus
better
includ
##be
##ild
##ket
lat
##oup
##ons
former
##field
vict
manag
char
call
##ior
los
med
##ise
your
free
scored
coun
pa
##ead
comm
injury
cour
playoff
ow
contr
pres
hop
##ph
quarterback
##ations
##ork
25
##ected
##down
hard
rus
turn
championship
dr
dou
##ave
2017
sw
nba
went
##ps
##sel
mich
##ents
touch
defense
##bo
bowl
inning
loss
series
##omet
say
keep
##ters
today
sur
watch
try
things
esp
##ics
##ami
sou
2020
##enn
##aining
ac
##ium
##iday
##ger
around
##ath
21
##akes
##are
##side
defensive
deal
##pped
came
giv
appear
cons
##enc
dav
2016
200
##lo
##ars
compet
many
camp
past
school
stre
base
report
##ib
##ott
##ied
united
##ik
##ane
##ames
side
super
24
##ood
ter
too
htt
##iver
##ular
##og
feel
minutes
##ern
somet
##ina
jon
colle
##ament
month
##ats
contin
##fc
##enal
##ont
##get
friday
ath
ang
youn
san
seven
goals
few
real
##bs
im
##ittle
##iew
mc
sk
away
##gan
place
far
athlet
##ster
##ling
england
22
##erence
##tim
ext
times
peop
took
little
inc
##ona
forward
cal
war
people
##ever
har
##rew
move
##ower
sim
ann
##ently
##ange
news
winning
million
##ham
##ef
##une
##ility
allow
fourth
##ined
early
college
beat
differ
never
rank
victory
fight
23
##ell
##ett
##ler
##ots
##ween
##cent
##gers
tourn
touchdown
hou
basket
full
wed
dri
getting
between
tex
thurs
##but
thursday
south
title
lik
##by
##thing
stad
event
##ille
west
young
##vious
each
##eter
bay
ju
beh
stadium
sit
maj
##ress
jack
sho
same
told
poss
ml
##ical
##ee
perfor
own
num
##ights
ty
angel
monday
might
##ably
pic
ra
##ible
conference
##vin
running
eight
##nesday
wednesday
##co
##hl
##ways
mor
stri
aver
score
coming
##ral
mat
cel
la
brown
##ially
##ody
position
em
basketball
tues
washing
##ful
lost
manager
seem
tuesday
##ider
card
washington
york
tal
let
##head
##und
chance
these
press
reb
stand
always
hist
break
tournament
mem
##sk
runs
##ey
starting
guard
leg
defend
having
##med
dep
##gin
##uary
offensive
center
##ugg
something
pract
##ann
##eng
resp
sum
usa
##vers
list
offense
##ville
stra
##ivers
inst
face
##ident
behind
##bur
able
making
including
##self
28
##ounds
##ortun
kick
##ually
##til
27
percent
eas
##lex
talk
https
rest
contract
mom
inv
prem
##ale
however
##air
mark
led
bro
group
throw
##ather
26
##iting
says
willi
james
jan
##odu
seasons
##orn
##meric
guys
mad
national
trans
major
without
find
del
americ
val
##ists
short
class
step
##ony
##ances
##ca
##int
aust
tack
gold
##ew
tom
##ready
already
supp
give
why
added
walk
##oy
straight
ten
sing
##ief
##ring
until
##ford
baseball
##ald
days
enough
succ
lu
late
##aff
div
eff
##vid
spe
bit
count
##ertain
doesn
##ms
gen
catch
phil
houston
adv
##gest
history
scoring
fif
happen
ge
success
race
##ugh
##ost
av
offic
spec
ham
quest
looking
ufc
ask
progr
started
##season
##cept
squ
che
clear
different
gian
announ
sure
vis
##ual
later
training
following
power
nine
fac
north
march
##ago
level
least
##fe
sol
bill
test
complet
mike
green
mil
shoot
ahead
##fer
##ark
smith
##mber
premier
media
##thers
##ency
29
curr
##ily
##view
thing
bull
yet
##ds
pot
spot
##der
er
##riz
performan
##its
det
phot
rook
sport
likely
##ired
qual
summer
patri
belie
31
sel
net
strong
finished
sen
remain
front
ob
once
sn
hold
bad
##key
##ession
dom
wom
##augh
tor
desp
wasn
aug
##yan
##chester
int
job
weeks
##pool
exper
decision
stay
certain
practice
000
jones
accord
##ational
liver
near
sal
##ael
sched
done
despite
##rect
##aps
##ci
according
##yle
alex
##ump
yard
##esh
eag
##ember
opportun
angeles
##ities
opt
thom
den
liverpool
chic
innings
##attle
oly
##wh
williams
reach
jos
dan
##ez
form
flor
eur
sy
manchester
double
olymp
park
##ipp
patriots
miami
##osp
intern
sept
fav
plays
overall
##ages
trade
quick
2015
roster
##res
prob
fut
mlb
rock
##bers
close
##ota
##igan
##way
##ned
pan
texas
##sea
person
dist
chicago
espn
50
impro
mart
host
giants
wide
import
tot
wins
ok
lou
##ately
rookie
rac
##cel
regular
49
##eg
mean
potent
tough
weekend
missed
consider
##inals
oct
men
tre
##red
##ida
##ho
fall
##ific
##ru
gar
strugg
interest
johnson
repl
geor
kind
wa
given
40
road
gener
##pl
course
##ines
##go
future
meet
expected
nhl
taking
corner
david
##sh
defe
receiver
##ino
aren
women
ger
oh
doing
##ness
along
##rid
##oph
june
cut
##inc
boston
##ule
##igning
ago
rob
iss
white
##iel
trying
##ansas
##olina
found
ariz
gl
probably
pack
chris
##ared
##de
ars
expect
clos
##rick
wild
champion
chief
chr
squad
playoffs
pay
##oney
number
division
##app
cover
##ama
isn
chel
heal
cre
among
jackson
##line
michigan
prett
bat
important
ref
##iod
gave
prom
100
sub
vir
pretty
florida
matt
moment
period
court
apr
july
experi
##ither
produ
signed
##body
pol
##ants
##ative
change
performance
eagles
##ush
##ures
teamm
##ments
less
ryan
chelsea
himself
##ively
atl
direct
##anch
tig
reason
enter
fact
talent
##lic
##cuss
ready
starter
opening
allowed
##veland
chall
##ement
cleveland
ent
##ners
guy
live
such
era
du
blue
shots
vide
mcc
##my
trip
cow
photo
##itive
tar
carolina
surp
##ction
##str
chang
##ought
love
##gether
je
penal
makes
april
sid
##ize
gol
prof
fifth
##ma
ir
everything
rb
canad
international
january
due
earl
##less
hom
thought
starts
read
pit
arsenal
arizona
##ckey
europ
##ically
assists
32
attem
35
##inn
content
seen
##ged
michael
comb
staff
situ
##yn
trad
##que
##akers
case
##anta
austral
dem
ev
room
lar
health
together
sem
hon
199
tech
minute
indian
##ney
sever
nca
domin
##ered
become
##ribut
rebounds
land
black
saw
bus
louis
bal
previous
wat
low
bron
draw
total
ncaa
country
leading
paul
##ator
jord
role
dall
coup
life
##ten
##ety
##over
exc
prep
ww
american
midfield
hits
##ime
winner
signing
##lor
##ether
wil
visit
rele
bri
christ
impress
block
##su
##odgers
dallas
##ended
surpris
jr
attack
whether
port
reported
special
##ces
oppon
prosp
pun
bring
susp
##icket
senior
##onto
fel
nick
fit
comes
saf
##utive
tour
##oles
##bert
single
##aim
kansas
##ebr
everyone
gets
toronto
##oma
##ari
cowbo
##ased
box
warri
##dle
joe
od
earlier
##cast
continue
coaches
anth
announced
asked
rich
focus
josh
question
looked
cur
potential
video
hall
www
##stand
alm
madrid
##iders
partic
months
opportunity
met
receiv
##elph
ins
pred
##reg
33
##eman
wood
key
august
##lin
##umb
biggest
celebr
fan
cowboys
held
##com
dro
jordan
sox
losing
##ised
##ado
steel
couple
called
der
strik
recent
agency
##amily
##ained
##ending
fun
##cess
##awks
spring
warriors
outside
ton
proble
lock
grand
family
obvious
doub
##ccer
##ico
used
wanted
tell
##ued
##adelph
2014
##adelphia
must
##no
golf
philadelphia
pull
sain
##ount
lineback
assist
arg
ranked
ut
fail
looks
favor
offseason
davis
lear
fri
lineup
minnes
tow
plan
cam
sun
##roit
##itions
minnesota
main
##ric
##cons
support
conc
kevin
jim
pet
east
##ention
touchdowns
anything
detroit
mess
lim
##amed
money
shooting
chiefs
sto
brand
average
abs
##ends
##ying
tight
34
##bc
action
transfer
either
tak
##ga
bears
sam
streak
##ided
ran
bru
thomas
ended
hu
hur
##aring
yan
join
maybe
hope
agent
program
franc
several
##af
almost
track
tackle
espec
dev
jun
panthers
seed
cardinals
##ffic
##ection
##ects
especially
conn
needed
##burgh
soccer
celt
##lish
build
##cos
prot
fresh
working
##aced
matches
claim
soon
injuries
atlanta
use
sack
rams
europe
##velop
happy
riv
brad
knee
veter
##ength
wal
nothing
##aly
hour
fur
needs
ko
##cial
bench
pitts
franch
organ
pub
finals
speed
fig
averag
fast
ca
ver
mas
begin
ohio
develop
sent
qualif
pittsburgh
steelers
univers
captain
mag
yanke
##oc
golden
wants
athletic
september
##uled
inside
seconds
situation
deep
45
provid
possible
jets
rap
experience
thre
##ny
sil
expl
lakers
cra
debut
stat
competition
##ote
##iol
ber
##outs
lions
diffic
tv
stop
cub
discuss
36
##ted
seattle
safety
brady
##ison
via
president
##ucky
##ured
mer
name
felt
##ized
ground
##uel
coaching
##cri
story
sixth
adm
kid
pac
qb
##sw
cho
ol
##itted
latest
tigers
bell
schedule
hockey
cond
broncos
art
##ension
hill
passes
recru
49ers
dece
##ka
##ism
check
##icks
suffer
finally
light
anthony
##ming
fam
else
##fect
certainly
##ully
##pe
challen
##tch
conse
##car
fant
fox
##ye
browns
knock
mot
##urning
turned
franchise
##aker
seems
##uff
fly
rang
difficult
penalty
dar
##kins
##time
ill
trav
december
appro
result
hot
stud
current
middle
hun
taken
##ander
law
takes
##olph
tamp
bry
##ators
hasn
##den
morning
entire
jeff
##ati
linebacker
believe
##celona
##ws
raiders
##aves
yankees
france
##aign
##iers
injured
instead
mont
simp
##apol
38
fa
helped
barcelona
means
scott
##ept
strike
huge
packers
arri
est
##inho
actually
mary
matter
stars
jose
offer
##isco
okl
worth
##ross
##tern
cost
shar
avail
campaign
fc
goes
loc
nearly
impact
passing
es
leave
##enty
anton
##ev
et
appeared
rav
matchup
pal
university
respect
ron
fed
pressure
phill
spent
##ober
##ital
enj
bur
oklah
##selves
perfect
37
intercept
crow
picks
easy
images
nove
febr
general
aff
kyle
october
november
improve
obviously
view
oklahoma
spurs
invol
quite
became
teammates
stretch
gir
february
defin
oak
drive
color
olympic
##inal
alth
stan
kent
die
##alo
cav
##osed
heav
defender
tonight
although
##ests
ability
##work
##ski
steph
##pping
asso
air
vill
associ
##ories
consec
##ren
alab
zone
##weight
giving
extra
consecutive
couldn
emp
across
agre
##pm
wel
##bed
cross
challenge
tampa
solid
push
fre
pair
ide
saying
##eason
understand
cubs
enjoy
##gy
rh
##antage
denver
athletes
preseason
fal
orig
arena
german
##row
redsk
area
##ove
nov
gone
bott
earned
lin
fair
veteran
##ls
charl
##inger
alabama
##con
defeat
hitting
reser
##ax
positive
tie
sevent
redskins
russ
often
##ries
##see
aut
currently
roy
rush
60
astr
junior
nationals
statement
showed
##ults
australia
##ians
rangers
lack
related
roll
##estern
tay
##aron
##itely
glo
addition
##ilar
available
getty
disapp
rad
##iness
named
stage
tied
rout
##any
buff
seventh
dun
tennes
vik
within
advantage
42
##eth
order
chances
wol
recover
proj
ul
harris
concern
term
plus
dodgers
cinc
##aught
adam
small
astros
2013
nice
coverage
dead
award
wall
##ero
central
texans
##els
organiz
##orters
twice
commun
seah
midfielder
francisco
target
gri
dre
##oint
taylor
41
##ennis
equ
body
worst
option
tennessee
rod
mod
##lly
lose
saints
happened
##innati
public
scr
requ
prior
dolph
seahawks
cincinnati
profession
georg
ris
aaron
throughout
##cell
answ
row
justin
board
daniel
##news
antonio
whole
colts
##dy
jay
ell
mult
worked
da
ele
numbers
ravens
clubs
pur
plenty
opener
##inson
##use
phys
##ai
recently
andrew
##ordin
dolphins
someone
true
rot
##ana
cred
crit
surg
moving
mind
sug
remaining
ant
prop
##ices
198
##ift
nin
interview
returned
##ective
moved
39
highl
beng
virgin
jers
confir
arm
cornerback
fer
mal
upd
##ym
knew
##ional
began
coron
consist
##ench
invest
results
others
problem
age
steve
##iff
allen
hands
haven
##ky
##ovic
max
effort
##urray
buck
missing
500
http
van
definitely
vikings
##gas
predict
celtics
vers
##ibility
##imes
##medi
link
troph
jump
penn
threw
2012
swe
##ighth
control
##form
virginia
kept
##avir
haw
attempt
prospect
##athan
wind
ram
##unch
rushing
impressive
official
90
emer
##wards
forced
##avirus
frank
fou
perh
perhaps
coronavirus
brought
##ili
span
##eal
braz
##te
##bune
pod
georgia
mets
##come
##ender
christian
remains
calif
ple
tackles
##wood
cop
murray
further
##bron
##zz
##ette
baltim
rockets
buffalo
pitcher
hor
process
wilson
##fort
brook
##olut
non
quickly
shut
trail
baltimore
reports
##rict
appearances
gon
##oor
knows
ups
kentucky
wouldn
postseason
hopef
00
##oud
depart
strength
son
immedi
book
unf
picked
mass
thanks
martin
contribut
miller
##apolis
grow
decided
##ature
##where
##ips
depth
brazil
hol
anyone
##enham
rid
particular
caught
fill
fil
48
similar
exec
mv
nbc
exact
racing
skill
dam
business
maryland
surgery
cricket
spr
unl
bob
44
bills
healthy
sour
carl
oakland
eighth
kings
professional
jag
battle
##ucks
approach
featur
patrick
lew
fell
orland
mel
reached
remember
##ondon
themselves
crowd
##aco
##aving
lebron
bottom
70
43
##ustr
tott
##idence
mour
##stem
broad
struggled
followed
market
brit
##icle
##ingly
coordin
serious
##sell
diego
based
social
tag
vo
talking
save
system
brandon
##iga
##mond
heat
occ
##owa
##roll
regard
##ike
freshman
meeting
bengals
fire
##yr
continued
signific
chargers
deser
##mon
andre
clem
feder
##used
tottenham
sidel
george
##ilton
issues
##ron
suffered
acqu
known
slow
rights
##uct
titans
pain
iowa
fort
mvp
##rodu
anderson
##ister
rather
##asy
highest
53
dropped
greg
cir
##ze
ye
vegas
olympics
##thern
pad
##inch
rom
earn
ice
temp
complete
above
##burg
twe
leader
issue
jason
striker
55
bryant
repres
cru
london
tel
mus
opponents
failed
fine
reve
becom
##oo
orlando
ninth
india
dig
brian
watching
rum
edge
french
##ara
terms
##cing
las
##ils
heart
##ials
wrong
##ilt
released
##ene
threat
unc
##ission
questions
pop
falcons
mist
received
wis
##book
afterno
hours
75
##keep
tribune
neg
scheduled
tur
drew
reds
##ante
rankings
##ipped
county
wait
jersey
ment
afternoon
##ova
##uk
canada
nas
##ape
fix
heading
bey
drop
scores
trophy
putting
ultim
everton
everybody
significant
colorado
##ges
fantasy
mcg
below
46
confidence
opponent
##rig
tennis
leaders
backs
oppos
triple
leaving
covid
##ij
shoulder
##oth
hopes
favorite
##na
network
leon
##ites
##ored
attemp
##ram
lam
##leans
boss
events
king
ronald
leads
orleans
stuff
pace
organization
plans
excited
commit
##iter
championships
origin
jud
##cas
##ried
mma
tried
prov
price
joined
european
mourinho
hum
combined
grad
wer
handed
##imb
47
##ena
states
coordinator
##kee
##ination
techn
##cu
heavy
clemson
afric
contest
cas
seemed
serv
76
sense
eric
rul
gra
##itz
kill
walker
ank
##rett
ach
woods
provided
##ha
sky
ban
contact
##owski
centre
overtime
incre
assistant
incred
id
##olog
##orm
subs
##ique
##men
hy
##aled
pie
town
jour
continues
semif
changes
force
returning
friend
##oin
feeling
struck
ros
vot
52
mitch
director
involved
##play
posted
##berg
sometimes
rival
##emic
pict
cole
os
reportedly
beyond
sand
spo
whose
travel
##well
##iple
##under
init
aub
throws
51
ba
##sey
paid
ways
mix
deliver
bayern
exactly
##zy
##va
cand
personal
local
russell
##pson
hen
tyler
##aukee
2011
yes
sacks
##rem
train
brew
goalkeep
percentage
##oken
cy
marl
jam
hamilton
##real
##waukee
##regon
bulls
oregon
ankle
clipp
deter
milwaukee
compete
que
avo
rober
bid
##tors
rug
80
comfort
blues
minor
mls
options
thompson
originally
fifa
##bb
longer
space
utah
##ging
##rd
credit
##rell
closer
ends
blow
hole
##anger
##zo
##ada
ii
matth
wond
54
trou
soph
western
outs
america
quality
ep
promot
value
hopefully
bon
range
kh
broke
multiple
pitching
##bar
feet
progress
bird
feels
acad
gives
moments
limited
represent
throwing
hear
traded
police
##ives
grab
jer
allowing
austin
carry
rugby
##ko
kar
jul
teammate
boun
197
using
raptors
odds
boy
##cour
defence
bor
spl
suggest
managed
daily
##eless
##ising
eye
##par
frustr
averaging
##irt
decl
gun
robert
stats
##while
convers
luck
replac
child
absolut
surprise
burn
figure
winter
clippers
slam
##irates
elite
salary
doubt
included
poor
##ican
##ica
jagu
owner
65
idea
inf
##ient
56
officials
##ivid
ur
oper
##gs
nascar
thank
members
believes
##orter
batt
rebound
kids
pand
##pen
##bor
receiving
sat
manning
##ata
duke
talks
indianapolis
eventually
##atic
##acy
appearance
physical
##ola
sac
curry
confirmed
boys
##ater
determ
floor
hurt
interesting
##he
lewis
bir
rate
fighting
2010
averaged
##ury
difference
thunder
mis
wo
homer
##coming
pga
nash
opened
##ta
mah
successful
wiz
respond
##yes
afc
lsu
##ibly
simply
mex
richard
feb
preview
##acts
##dog
##otte
##ickets
germany
backup
tony
whate
comment
marcus
whatever
caval
meanwhile
seeing
magic
hel
indiana
##ano
changed
individ
react
matthew
##iring
community
jaguars
particip
amaz
rose
norm
house
beating
decis
placed
##apan
reporters
defending
present
defens
distribut
robinson
mun
gord
pulled
beginning
##val
##ini
medal
hoping
##gen
suspended
titles
receivers
friends
dream
lee
moves
ken
subscri
dame
var
rotation
cast
attempts
answer
stephen
prospects
style
sides
alleg
plate
##ex
stream
gm
starters
table
indians
57
spain
greatest
ori
##ability
losses
58
date
bruins
##idge
island
apnews
##elf
breaking
member
cavaliers
immediately
##ife
##cats
##port
bullpen
##elson
sanch
learn
##emy
fame
59
outfield
lay
columb
opportunities
68
finishing
chase
completed
66
bats
newton
refere
##ftime
halftime
67
klo
notre
considered
jake
sophom
none
##oen
candid
##gins
english
myself
72
##ask
rules
possession
eastern
retire
loan
charlotte
##iant
sean
goalkeeper
japan
##overs
attention
note
rough
quarterbacks
owners
ot
russia
stick
office
kl
klopp
##era
gordon
ross
##ulation
ps
messi
##agram
##ished
braves
legend
wizards
##read
mir
detail
shows
griff
puck
fired
sar
driver
catches
##azz
jays
##ences
##ute
radio
pandemic
excell
cous
comeback
71
vol
##cs
australian
instagram
##utch
##consin
##okes
durant
core
holding
##icester
louisville
happens
leonard
mur
##win
leicester
69
confident
californ
ky
pound
improved
avoid
capit
sett
howard
rand
clash
ener
##bre
cann
llc
rbi
comments
td
adj
ronaldo
devils
share
guar
##don
portland
##iola
##kin
##ume
article
wing
64
sound
locker
ending
adding
review
showing
rays
faced
selection
wisconsin
kelly
##iano
vent
rio
california
upset
shock
drafted
mention
##ampton
thinking
##outh
##uss
deadline
##ki
##oper
schools
wrest
sophomore
horn
semi
##enced
hay
father
window
facing
gover
ped
##ja
gall
ven
##ering
##20
rut
keeping
blaz
marlins
considering
##ified
returns
release
##za
gonz
##uing
63
design
argent
##ert
##ror
rodgers
jonathan
smart
choice
silver
##yer
appears
inform
##bi
recruiting
andy
ce
##roduced
interceptions
const
size
nfc
nashville
relie
weight
prove
juvent
lower
bigger
##clus
ly
juventus
type
bright
brewers
dj
beck
charge
ker
##imin
gard
tweet
building
shown
butler
appar
ren
##ula
##bow
disc
product
talented
ranking
challeng
investig
##cle
subst
##bro
clean
rick
pel
particularly
qualifying
angels
benef
batting
poll
##die
competitive
62
provide
##iet
chann
agreed
##rey
spots
speak
highlights
##backs
##ract
viol
elli
memor
announce
##rest
cousins
distributed
danger
61
clearly
necess
auburn
pitches
##wart
pm
unfortun
accom
capitals
athlete
walked
fellow
##anned
scre
##ened
relations
suspension
##ban
jimmy
figh
winners
##ample
##pper
disappoint
ire
toward
leagues
sell
development
status
ash
zach
##ouse
facebook
swing
extension
river
sporting
hander
except
##anny
memph
bol
bucks
##ceed
##oenix
emot
words
foul
sant
memphis
extrem
ny
kenn
punch
joining
phoenix
hend
##mund
diam
bud
selected
prim
rivals
lic
##ua
##gn
##ius
phillies
saves
rev
achie
stanley
orioles
zeal
##aded
##iley
rhp
royals
honest
watson
rounds
grant
##ani
flag
##aged
problems
knicks
includes
196
##regor
incredible
twins
##ires
derby
##ides
compl
carries
##anced
academy
canadian
diamond
guardiola
classic
defeated
girls
scout
##cum
union
pitched
stands
races
mcgregor
rule
balls
##ode
turnovers
##cla
company
adjust
podcast
sanchez
73
mexico
surr
stopped
cbs
copyr
##rie
committed
milan
copyright
lake
coast
reserved
include
critic
create
##astic
evening
cb
proud
cook
attend
willing
previously
ireland
entered
weren
ble
comfortable
address
account
fla
energy
cool
##istic
2021
villa
lb
terri
##ese
onto
##ution
athletics
committ
kir
calls
zealand
trust
likes
information
express
jar
runner
listen
speaking
recept
worse
switch
kr
adams
honor
association
marsh
##imm
##sports
trouble
hus
##gress
paris
ga
montreal
mitchell
interested
scen
spread
gab
pirates
lyn
##mann
absolutely
risk
pounds
##cia
oil
tiger
reasons
jaco
luke
wildcats
heard
favour
ultimately
hitter
mac
##cer
amazing
descri
indic
william
overs
danny
moore
italy
becoming
towards
74
##ude
entering
hurr
wrote
africa
postp
##uins
##lished
scot
##hor
insp
trick
##ains
death
sad
##olo
##itor
peng
respons
leaf
analy
doug
10th
retired
revealed
1st
gary
lineman
stun
##aud
elliott
hart
lift
associated
jacksonville
higher
##hab
##ss
imag
completely
select
##hi
sort
mack
##old
##ades
##px
2008
##ario
##bl
ka
talked
##atory
##omb
lind
##ties
##ien
##oned
committee
concuss
display
hawks
offers
names
defenders
decisions
passed
spect
route
performances
commission
amount
##roy
activ
struggling
learned
sitting
##ita
baseman
kane
##hawks
##aster
##iled
project
alexander
##rac
dyn
elig
2009
southern
##rian
helping
usc
rain
click
carlos
marin
tomor
individual
beach
##cher
martine
channel
##arily
native
suns
##yl
nets
penguins
##iah
meant
hat
ian
brother
##ones
fear
wish
district
##bal
##eated
relationship
##net
spoke
welcome
gal
typ
financ
license
large
headed
source
##ashed
occas
faces
##raph
wife
##arch
bradley
##gets
ucla
ranks
send
alongside
griffin
youth
az
guess
cooper
##dogs
connect
tomorrow
dave
rating
roberts
columbus
##iro
pers
lap
broken
ital
active
infl
martinez
peter
excellent
uk
sor
incident
picture
##ret
ms
walks
buy
ku
##ogn
pitchers
telev
executive
mand
##omes
##castle
gil
##iest
pointers
winger
##aka
##uring
dominant
blazers
homers
fund
cannot
clinch
medical
##awa
accept
##ung
bruce
hud
victor
dest
hosts
##eness
##string
pier
##asing
sr
bag
split
irish
seek
referee
rodrig
hamstring
offered
baker
##lley
##away
ray
replace
##lies
online
self
82
##uez
upcoming
iv
wonder
wake
newcastle
##nal
boxing
traff
plac
interception
exciting
##elo
sud
dort
##arez
##ilities
expectations
length
##lyn
effect
moun
##brook
aggress
##eph
skills
built
##ias
unlik
fixt
##rup
claimed
##alu
keen
camer
85
calling
dal
decade
deb
dub
closed
scorer
british
77
purs
penalties
leafs
signs
usually
cry
session
wings
##ops
bringing
trev
99
positions
message
##iliar
fred
##beat
nl
absence
mental
piece
henry
sle
pu
extended
unlikely
dism
fle
secondary
brief
upon
estab
production
##fully
update
broadcast
lon
##pg
proved
##jo
valley
##ols
crew
carter
##nell
recall
admitted
waiting
water
fern
##dd
morris
bab
jen
ring
notes
donald
##ker
##uly
##gar
bb
webs
catcher
works
wwe
##enger
##andez
govern
ducks
conver
safe
page
##house
itself
fully
belt
##more
bridge
bea
##ros
wimb
massive
##ahe
hero
##nett
meaning
##raft
bucc
##board
cash
tall
ident
slot
dortmund
strikeouts
##nel
##iling
##ube
##iced
##gary
yeah
recogn
counter
clock
palace
##ify
example
evans
##sa
extremely
arrived
95
##oti
unit
mach
equal
##mons
weak
easily
tickets
2nd
isa
defic
padres
##ises
miles
harper
advance
hern
journal
path
watched
officially
##ouri
lab
standings
nobody
meas
blake
focused
buccane
victories
wade
ventures
opin
finding
capital
pap
masters
jere
aj
ones
lines
reporting
charles
##rik
harden
serve
##eel
hang
subscribe
records
mock
agents
capable
fab
agreement
##ushing
disp
consistent
lightning
attacking
fights
##ateg
cat
hey
weather
##erland
conte
forget
##ointing
northw
78
bank
##now
majors
buccaneers
marc
wimbled
ta
aud
slid
slight
born
gradu
wimbledon
yester
clay
##cott
website
reserve
##ardo
combine
swed
pra
ens
tests
carr
belg
sweep
##gi
eyes
potentially
gain
cro
word
collins
##istan
highly
younger
receive
jes
##of
spanish
created
silva
##ault
highlight
yesterday
tan
steven
saint
reproduced
histor
brooks
ner
recorded
sha
china
recruit
81
standing
trump
soft
##game
superst
maintain
accompl
bern
##bel
hurrican
concussion
bund
##ject
ford
##aga
hurricanes
syrac
syracuse
05
400
unfortunately
nelson
##cted
ticket
mostly
mariners
pep
91
##me
familiar
##avier
##reci
alone
relief
ful
replaced
300
mos
##uc
boost
baylor
##load
turning
section
linked
disappointing
stock
guarante
shared
88
dere
##izing
dw
##oyd
demand
rodriguez
##bell
nad
##mend
momentum
oilers
capt
harry
supposed
jazz
portug
##ience
surprised
clark
remind
brill
seeded
yout
concerns
shaw
pushed
spend
negoti
##uggets
stanford
firm
southampton
##fo
sex
wales
mountain
wid
vote
2007
rash
##bour
financial
nar
nuggets
rat
figures
dynam
normal
offens
si
##gu
laugh
chair
wenger
crown
##opp
possibility
bos
92
79
hosp
luis
mississ
turner
##inois
##ichick
irving
surv
holes
kore
amid
peters
argentina
setting
separ
brings
sets
illinois
details
ole
joseph
tested
doubles
site
neither
obs
##lement
direction
reed
nav
driving
grade
entertain
wearing
growing
knights
judge
munich
dh
unable
westbrook
thrown
fitz
##fa
region
encour
condition
snaps
tradition
bark
appreci
retirement
##rop
crazy
##ya
harrison
specific
beckham
listed
belichick
##onse
knocked
photos
replacement
ott
##umble
secure
##bit
nik
decide
##ration
##hill
83
factor
emplo
pere
plat
goalie
##la
bases
fantastic
mistakes
##ares
gym
##cy
clar
86
84
celtic
margin
pointer
##ouver
ess
rockies
##ymar
derek
struggles
psg
vanc
truly
neymar
math
bour
##ippi
bub
cult
transition
student
thoughts
bulldogs
atlet
mr
##essed
natur
presence
defenseman
acquired
anal
pacers
map
service
vancouver
mck
god
agree
drivers
semifinals
mississippi
gas
helm
begins
dak
tend
wolves
##wich
##standing
federer
singles
simple
ruled
##bing
##ira
supporters
youtube
featured
maur
env
deficit
charac
tip
sudden
todd
email
flyers
bonus
sher
unbeat
##due
hell
film
contro
quarterf
98
search
cancel
rehab
prepare
annual
semifinal
motiv
rivers
jur
##wor
prepared
87
lig
89
por
##essions
experienced
gloves
tro
il
simmons
ald
##esl
aim
leaves
snap
nic
releg
shouldn
falling
blocks
turns
##nar
elbow
controvers
ru
djok
dangerous
##anton
garcia
##ager
liga
pist
targets
longest
delay
##gba
##umn
##gio
distance
##oping
steal
gib
##oz
popular
tries
launch
compared
lad
##monton
djokovic
##ura
aggressive
11th
93
diamondbacks
competing
holds
evalu
possibly
conversation
protect
edmonton
morgan
formula
esc
##eme
##egr
##stal
ry
apart
prevent
meetings
##icans
rally
##aine
perform
alb
thinks
treat
spell
trevor
travis
enjoyed
##stop
lives
italian
effic
2006
virt
dust
cause
##vey
department
tra
hospital
om
door
##ahan
ib
94
valu
shift
wra
haz
rebu
ark
response
mistake
##aska
lane
sale
parker
##phy
rumors
commitment
crist
gotten
handle
russian
spin
served
##iens
##lines
cere
brooklyn
mob
##ding
remained
drill
##rizz
calgary
analys
##ancing
rub
##ched
96
reven
connor
outfielder
celebrates
author
##alen
bout
stories
97
wear
apparently
spir
nadal
sharks
partners
##kn
situations
wright
maver
sold
died
mahomes
stewart
conced
runners
celebrate
##che
buzz
prediction
chap
beaten
spons
postponed
dad
##bury
sens
picking
feature
tommy
flight
striking
worry
##illa
pelicans
bang
##wise
na
##aro
optim
epis
testing
partner
europa
2000
3rd
birth
cameron
sideline
unbeaten
quiet
whom
carson
##ih
fewer
surround
##nold
##itude
##hib
recovery
responded
ack
desper
##tz
grizz
balance
goalt
puts
purdue
##ived
##antic
iii
garrett
bye
northern
earning
gap
steals
sust
##ously
effective
image
stayed
##aging
indy
tier
##pr
television
log
lucas
drag
conditions
helps
versat
atletico
stepped
kam
##ipe
punt
kickoff
elimin
achieve
agg
madison
reid
please
produced
fortun
lang
##ela
impressed
guaranteed
learning
beaut
##rence
staying
##thy
##amento
tun
brazilian
commissioner
leadership
kobe
ward
sacr
finale
spart
missouri
children
edwards
brett
thrill
roger
henderson
##acle
##ington
substit
analysis
##uth
corey
195
adrian
pistons
imm
hunt
flames
hook
infield
scoreless
hunter
apolog
islanders
##mas
profile
shape
aston
spending
stood
##iron
management
root
receptions
craig
toss
spark
closing
hernandez
easier
dominated
drove
##otes
lac
asking
##sters
murphy
##unt
##hol
canadiens
##pa
jok
uns
##ped
##agn
##enson
anybody
caps
prime
sav
sacramento
task
##iaz
orange
contracts
solo
##atively
telling
fought
outstanding
fis
merced
pogba
hired
##eb
dunk
mic
deals
fighter
refle
##yton
rbis
brilliant
priv
living
husk
deg
exch
data
kim
sources
crystal
rebuild
heavyweight
mcd
##ption
unif
rare
arkansas
northwestern
##efa
regional
##uted
##ening
salah
nebr
ali
cavs
projected
mason
warm
hornets
terry
defensively
pin
##going
cab
prefer
dealing
mu
appeal
fastball
kirk
heads
scouting
2004
pool
investigation
polic
valuable
knowing
jared
nebraska
##ctor
ottawa
common
phone
swim
vin
##oa
rud
redu
grizzlies
claims
##sn
shortstop
trading
##nowled
##han
mother
majority
##oved
crucial
campus
winn
competitions
##onk
imagine
##dale
lop
proper
ferr
services
acknowled
kicks
##ublic
volley
12th
dut
party
asp
noted
trainer
character
opinion
kaep
unless
logan
efforts
##imum
dismiss
mavericks
##andre
##aments
explained
coached
##ste
##ernick
outing
uefa
bundesl
believed
contend
shirt
##riel
movement
writer
height
reality
eth
lamar
##omed
mercedes
##eline
ster
required
arrest
##icip
sixers
eligible
##uster
standard
downs
##mark
cris
##acher
contender
kaepernick
jerry
##hand
##uters
bundesliga
regardless
candidate
correct
updates
advanced
##zer
becomes
kel
##quez
determined
feed
keeps
crash
##imate
yellow
reaction
sidelined
blackhawks
bobby
restrict
suit
jeremy
##ees
sb
usual
discip
additional
cath
canucks
##ando
##isted
##reek
resume
domest
decent
wrestling
rise
forwards
##iev
conduct
stam
##acked
friendly
walking
cou
mentioned
joel
blood
buckey
76ers
##ito
##iment
republic
analyst
reliever
##mo
##rif
##ining
##alez
serie
remark
##berger
announcement
playm
bucs
pas
marshall
memorial
fash
tee
regarding
essent
##nt
sharp
pow
batters
##lad
conor
##iles
graham
lynch
surprising
bounce
um
demar
scotland
wag
##iable
cf
tat
purp
matthews
exit
lav
breaks
perez
wentz
improvement
limit
influ
watford
fashion
rusher
scrimm
nations
roma
doping
lif
landed
eddie
dayton
hitters
extend
mcl
gray
##conn
mound
gur
barkley
jalen
campbell
wayne
forest
pride
2005
##umph
editing
##mit
sees
##ala
woman
gonna
larry
practices
argu
initially
jacob
passer
anthem
f1
##essing
initial
##haw
bryce
reuters
garden
drives
craw
ak
frame
damage
changing
fol
##emen
superstar
mandatory
lucky
happening
daugh
sleep
gonzalez
fielder
trafford
org
##eed
cases
reading
promotion
assign
hugh
yourself
jamie
arguably
raised
##rera
pierre
pen
luk
jackets
drug
sergio
fumble
caused
marqu
vander
programs
lion
##jected
grud
students
otherwise
laps
hr
places
categ
shan
pak
evid
aware
unique
##itten
##gate
flow
upper
catching
domestic
##rupt
##right
colin
suffering
prix
statist
nur
notice
##eta
##unk
##mill
swan
weigh
nj
disappointed
##rit
##nis
opposing
##ii
zero
concerned
bunch
##weather
cold
carried
tournaments
troy
register
##olic
predators
##apped
constant
daw
vac
quinn
fow
johnny
explos
##uf
seemingly
kerr
personnel
##how
anticip
rushed
aside
cros
street
##gus
##ania
delivered
sterling
##iding
luc
##tered
winston
raf
horse
blocked
cout
bart
dug
mayfield
##iors
triumph
somebody
turnover
carroll
sweden
##iana
passion
americans
##llar
respectively
dl
##sen
isaiah
unp
##bon
chip
##lands
awards
tying
congr
snow
obser
diaz
dropping
holl
##ores
ign
square
alv
##tery
cleared
thus
##ague
nich
##ipping
##ardy
tds
mik
##adow
##ification
les
##vens
nate
wheel
prepar
prescott
visitors
shortly
lawrence
##ograph
germ
jum
kicker
##eys
storm
##aa
##isman
##aheim
century
bennett
##erc
legs
grew
vice
benefit
##vert
falls
##uit
##eas
##ument
costa
phillips
alleged
13th
bear
rutgers
wire
atlantic
joey
##iser
##ato
##olas
##yth
wolver
4th
##ulk
##ashing
##oming
##iber
ace
anaheim
screen
mcil
compar
harb
uconn
##bourne
euro
filled
floyd
##iger
##aku
areas
##las
cody
episode
uncertain
larg
features
emotional
communic
basically
culture
##25
model
ja
matters
government
princ
sweet
elsewhere
rivalry
kaw
denied
tact
cards
suggested
journey
nathan
doz
surf
departure
torn
bourn
parents
##onso
polit
seat
lor
hip
boge
mccar
struggle
joshua
knockout
charlie
##apoli
scrimmage
hadn
maple
error
##illy
trent
xavier
##urt
rein
##oul
consistently
##mony
chart
anyway
##ox
09
##urity
immediate
##eted
largely
juan
##ele
##ims
err
coy
version
derrick
##iem
##using
joins
steps
cycl
technical
##ours
napoli
empty
senators
yah
##tr
refer
jurgen
##edy
##0s
cristiano
text
ultimate
##olves
dram
ride
links
reaching
gronk
proven
##idents
huskies
##emouth
veterans
access
charged
bed
enc
2003
##eland
01
tax
faith
##eshow
reporter
combination
brom
necessary
pushing
dill
betting
accur
ded
scheme
busch
mate
gruden
##aries
bryan
heavily
##hold
marks
mobile
bournemouth
ourselves
dt
korea
tcu
anfield
christmas
defenses
hund
coleman
tremend
##immer
wicket
ted
smo
undef
guards
imposs
raw
minds
##ipeg
rematch
loaded
sne
duo
winnipeg
08
exclus
older
kenny
teen
slightly
uc
##eat
command
recap
basis
moham
kend
##hp
barnes
motor
desire
##look
inch
bes
weap
buckeyes
##omp
mcilroy
fergus
header
timber
speculation
burnley
lev
ferrari
undefeated
barca
latter
stages
famous
fowler
xi
opens
anywhere
tuck
questionable
opposite
2002
mull
gill
pakistan
ss
loved
facility
stone
##abled
croat
boards
##otball
midway
peterson
04
##izz
critical
matchups
rim
original
rou
pieces
pock
linebackers
contributed
attract
din
##onda
kicked
stuck
slideshow
attendance
planned
policy
britain
ferguson
criticism
mick
belgium
arms
##gram
birdie
scratch
discussion
nr
bord
##ussia
music
persp
evan
##rah
various
fore
ale
berth
bound
##ulated
##illo
increase
impossible
visiting
landing
worried
casey
247
villan
##ardi
alt
noah
saved
##enz
brack
stronger
bubble
##oms
speedway
mile
locked
celebration
rapid
ceremony
##epend
girl
cust
##ders
##anda
ip
secret
borussia
layup
2b
devin
recovered
finishes
bowling
brees
schol
blame
ump
beautif
foster
security
circum
swansea
peyton
arrival
##bast
somehow
food
##ieth
candidates
published
emph
independ
human
deserved
harder
embar
##hal
described
melbourne
ug
##ival
offensively
versus
planning
qualify
nag
##uay
joy
kohl
trial
request
lopez
master
brend
mixed
relegation
lone
mayweather
chad
natural
18th
thread
##bling
reigning
##chi
assum
afford
mph
foundation
rated
altern
##vech
tide
##rafted
arch
relatively
contention
connected
predictions
##war
recalled
brighton
barely
yahoo
intrig
greater
outsc
reward
harbaugh
riley
##una
hills
##arius
jor
historic
crim
##esome
sending
##ference
ensure
ces
##ovich
crawford
wolf
##what
loose
flying
alive
billion
ari
convin
legit
elect
undrafted
##iler
##iny
docum
require
stor
posting
roberto
chose
chat
portugal
load
##eds
hazard
##athon
established
glad
spieth
15th
chairman
fee
operations
neck
productive
##ishing
##rass
legal
exhib
arc
negative
environ
flash
amb
ah
african
paying
pul
expand
##break
daughter
##ledge
alonso
indeed
promising
pete
##mont
expects
circumst
serving
shutout
##ancy
somewhat
whit
rolling
fastest
perspective
emerged
##mos
tells
awesome
redsh
lowest
stunning
kem
goff
zid
2001
120
fem
##aked
grabbed
scher
##water
##enko
sir
##oll
mig
tweeted
preparing
##ented
strikes
surely
albert
edition
##aha
##encia
cit
choose
notable
##ulous
stint
07
showdown
gear
14th
suarez
msnews
strate
vel
##geon
strategy
pitt
scenario
rall
catholic
##inity
brock
fisher
primary
##bilt
eli
suc
##ology
barry
monaco
sounds
dog
tremendous
fract
linemen
##pat
rah
seriously
syd
hotel
##cal
lyon
trio
##roke
seeking
zidane
##whel
##anna
weird
dealt
lands
##town
##mad
vanderbilt
terrible
reacts
blog
tenure
levels
##11
og
autom
##iece
interim
##ural
dod
poch
forg
kat
ideal
necessarily
mov
flex
decades
williamson
fitness
sev
midd
##mission
global
##isberger
06
hughes
embarrass
dy
evidence
settled
bronze
##ns
cars
spirit
gather
standout
suddenly
column
occasion
mcdon
hearing
##ista
##ethl
powerful
challenges
roethl
blocking
jumped
bum
virus
manage
rogers
attempted
wy
dynamic
oz
##ieu
##fred
##ports
rooney
##oom
##ipper
erik
treatment
roethlisberger
gut
pole
fixture
protoc
canceled
vett
succeed
germain
villanova
porter
spartans
uncle
nature
##auer
exchange
03
flat
rookies
##orns
raise
##wolves
simon
ramos
parts
##bin
charges
##iance
##zek
billy
##ope
sydney
removed
perry
fs
priority
scholars
workouts
overcome
holiday
##lington
secured
sanders
dor
letter
utd
serena
dim
sacked
heels
pleased
##atives
##ettino
##court
##ubb
flu
guid
athleticism
ric
##night
amate
tul
pochettino
sabr
deserves
educ
rafael
remarkable
advice
drink
pav
deandre
acl
restart
environment
150
bounced
zimmer
fumb
upgr
##ailed
##stein
shootout
cham
von
laur
complain
hug
liked
##aun
##ju
allows
conclud
resum
##cock
anti
riz
bust
demon
famil
directly
quarterfinals
coyotes
110
02
##nie
scholarship
workout
##ruct
##biid
101
##ulations
contenders
richardson
##ylan
partnership
##patrick
rivera
goaltender
birthday
nd
lukaku
mccl
darren
hung
honors
crack
lots
shel
stops
appoint
harv
physically
kawhi
##mar
continuing
hundred
gained
surrounding
trailing
towns
beautiful
trot
##mble
longtime
mount
17th
gunners
gift
##quently
105
curt
managers
accomplish
opposition
##mb
liber
##raw
handful
frustrating
marco
brain
sup
brut
featuring
##vechkin
protest
medals
reput
##hard
collect
wickets
palmer
kyrie
dustin
download
##phere
discussed
##igned
##oted
bog
introdu
brien
rising
##iving
embiid
rosen
rar
disabled
fighters
jab
wise
jenkins
leap
##clusion
platform
solsk
embr
ovechkin
16th
##lander
250
##gom
vettel
converted
scand
forcing
stoke
honestly
iron
tenn
mail
increased
wolverines
##rel
usp
responsibility
cancell
jefferson
paper
apple
calm
bellator
bold
wrist
knowledge
expecting
ratings
sebast
julian
robb
perman
votes
warren
loves
band
shane
mccoy
truth
wit
timberwolves
##len
ramsey
pocket
backfield
##18
bou
santa
qualified
frustrated
shak
vari
female
fixtures
paint
sunderland
##burn
entirely
consistency
conv
banned
kohli
withd
royal
wore
fairly
propos
lionel
amp
##eno
improving
##icing
montgom
kuz
subject
##mers
expressed
marathon
##isky
zack
insider
##lli
sacrif
engine
admin
mlive
song
##oni
##anche
exist
rely
##uer
heisman
##ales
essentially
##ases
bt
failing
##sch
circumstances
stef
##kyo
switz
##formed
cardiff
##umped
venue
##ran
strain
mccarthy
issued
##esy
##lle
lov
actual
marked
thor
killed
format
##aways
tokyo
prize
accident
firing
hopkins
dutch
pear
##otted
incredibly
scene
keeper
toy
sprint
hosting
crosby
dennis
##oring
icon
1999
favorites
##encer
##izes
intention
daytona
##min
climb
legacy
invit
gareth
minne
##rone
##can
lhp
##jaer
##others
narrow
forever
federation
redshirt
repeated
helmet
nom
repeat
bod
somewhere
philly
##acular
homet
##nba
bogey
videos
dir
modern
underst
##inese
snapped
debate
valencia
defle
bracket
##leton
chron
agu
##vis
lever
3b
odd
trub
##mingham
outcome
##aren
holm
unlike
han
##point
##inel
affect
##aming
##ao
chand
##amin
dean
norman
blast
birmingham
teach
##gie
##rative
1998
capped
awarded
hometown
putt
clin
adds
praise
trubisky
amateur
##hood
ort
philipp
chasing
gay
brun
eliminated
##acity
alan
##iago
prest
tail
creating
fat
dick
##ground
lill
loy
thous
tribut
typically
lean
##isf
rice
terrif
whist
montgomery
ridic
dylan
lottery
194
forth
largest
cheer
gabriel
trailed
##je
dark
##cic
##cil
##32
##tle
##cts
grass
ops
homered
sorry
##itary
keith
thousand
upside
unbel
nights
freeman
hair
eat
nev
traditional
##anim
obl
solskjaer
louisiana
kal
unbeliev
settle
sabres
scar
aval
cancer
liter
kil
congrat
##ulate
delight
minneapolis
lank
mater
bond
cu
degree
quarters
opted
lowry
hopeful
##jan
tab
##ansen
produce
misses
regulation
possessions
anymore
##wa
lau
wes
salt
kris
generally
awa
spokes
seal
gators
string
ongoing
ceo
##olution
600
whenever
prec
krist
books
tap
streaming
hate
volleyball
pulling
commer
multi
mills
##light
croatia
reputation
econ
covered
complex
##cut
stated
intens
pedro
determine
monster
vic
##apping
wagner
sportsnet
drawing
calend
grind
fest
controll
neil
##oon
matched
linc
franklin
coug
1b
employ
voice
samuel
abd
hosted
cuts
##mitted
busy
deserve
nike
courtesy
ingram
negotiations
ties
beg
##ador
rizzo
emerg
flo
##cci
brothers
##19
##apt
memory
attitude
glass
gronkowski
##inent
revers
colomb
seg
##here
hig
106
weekly
##oln
revenue
neal
##iveness
promise
custom
coutinho
copa
martial
##vr
signings
finds
disappointment
##mbley
roles
sits
##azier
fury
encoun
presented
abuse
##cover
sevilla
wembley
alexis
totally
leeds
instant
army
bale
mend
fitzpatrick
doubled
cougars
##heim
atmos
ugly
avalanche
graduate
lillard
famer
##een
promoted
hire
kicking
magn
participate
groin
arbit
superb
atmosphere
tb
wallace
rory
sut
unanim
garopp
glove
##vy
pinch
stap
manny
##10
breakout
garoppolo
rolled
proceed
lineups
hoped
explains
belief
pointed
sherman
##oto
##iard
reign
countries
lamp
##mid
miguel
developed
tucker
drawn
##fit
##rahim
provides
conceded
speaks
failure
incons
spectacular
spencer
oliver
holt
updated
admits
dramatic
shanahan
uniform
##ob
##box
bein
bald
econom
perfectly
allegations
recovering
enjoying
drama
groups
purch
normally
kers
##rap
expans
104
brent
cutting
vision
cruz
memorable
separate
numer
skipper
##mpo
##lers
favourite
t20
generation
circu
bowler
##resp
explosive
brendan
cart
switzerland
completing
cass
resulted
inconsist
##rated
scram
letting
dix
arrested
divisional
challenging
battling
##band
sustained
recom
trades
nc
seats
karl
sri
cze
santos
finger
stevens
desperate
##zing
ibrahim
understanding
writing
declined
mane
shy
belong
##force
providing
seniors
administ
officer
ppg
voting
800
herald
longh
##pn
brutal
outscored
outl
##egal
jean
calendar
randy
rarely
memories
rallied
sull
preparation
##million
stopp
##ishop
hardly
diagn
affected
dance
weakness
substitute
pens
##ovan
granted
package
private
stroke
mentality
voted
families
ay
1996
category
stanton
insists
cul
timing
hod
##col
##football
warner
##urred
establish
maid
gymn
rf
answered
contests
##rier
##jk
mirror
burns
appreciate
##uru
symp
ahl
stamford
##lla
overt
trout
##iy
meyer
shake
foles
motors
excit
2022
breakdown
involving
machado
faster
##urance
fulham
##sl
##irez
sebastian
tired
lady
lincoln
kershaw
gro
burr
complic
demonstr
effici
intent
watt
mickelson
explain
crisis
##har
102
##bas
108
mario
controversial
guarant
lived
gor
##imated
103
beats
sf
baby
unbelievable
clubhouse
compens
##acco
defeats
##agger
frustration
##strom
##zel
##asty
##ria
palm
##etime
drops
afp
##rod
kan
realize
##osen
integr
performed
##ridge
emery
rhyth
##osa
##ivan
fernando
##ded
tu
lex
till
125
excitement
boat
riding
publicly
legendary
okay
developing
swept
##ae
gonzaga
phen
confirm
scorers
##ropri
dedic
##rum
behav
##oop
personally
trey
assault
rounder
takeaways
location
insisted
##kan
pour
ramirez
indust
##etok
barrett
terps
laz
darnold
tape
podium
##olet
glory
owned
##agon
glenn
temple
struct
ownership
youngest
chandler
smaller
antetok
ont
turf
slip
versatile
alvarez
awful
cheap
reyn
##elman
##rant
dugout
rhythm
laf
activities
regularly
pictures
loud
exhibition
birdies
##exp
entry
##atically
walton
trend
sheet
importance
guil
subse
##ounmpo
answers
minimum
##istry
mari
breath
claiming
justice
roundup
##efter
slug
chinese
carm
defended
prel
batter
sponsors
samp
headlines
gibson
fits
ox
##bble
##bes
bailey
slide
toyota
occasions
quad
emphas
romo
piv
antetokounmpo
au
mohamed
##around
turgeon
wre
ellis
vital
##hr
dash
swimming
nevada
##olan
smile
dalton
fields
diving
numerous
fouls
tribute
station
supporting
replay
noon
ridge
giant
##ente
mes
##casts
creek
##itable
dud
careers
langu
drills
liberty
remainder
nod
lifted
literally
tally
offering
##umm
serb
celebrated
designated
rome
backed
payton
leh
##azette
exception
phenom
shield
circuit
witness
outings
##axy
reps
##por
saban
eager
##urch
unclear
shr
##jans
tune
measure
growth
refused
clutch
blew
##arks
capacity
strikeout
##isa
satisf
##cep
lefty
ech
exclusive
##ios
scouts
circle
wound
accused
20th
##ups
guarantee
##nn
donovan
specifically
gh
jerseys
##ruction
apparent
illustr
##onte
neigh
kay
replacing
playmaker
tyson
##rez
toughest
expansion
cher
##12
sidelines
intriguing
punish
##room
prince
errors
nether
107
robertson
joint
entertainment
gurley
bought
##assed
hype
chem
optimistic
hurts
##imination
##ements
##unes
##ront
boise
council
stopping
border
pleas
sullivan
spoken
##ffield
jesse
violence
thri
##fb
##sky
113
frenchman
exerc
lined
brid
##imp
devast
knight
influence
handled
##icut
##acing
spaniard
manz
##fers
recruits
##ints
efficient
stellar
boo
##enton
managing
mort
hotsp
understands
##iak
fuel
tate
galaxy
db
benj
jesus
ibrahimovic
attor
totals
bil
dakota
##terson
##iters
softball
respective
ivan
harvey
jorge
##olds
acknowledged
bbc
dray
strange
accepted
beal
gig
##qv
funny
vincent
gran
netherlands
ryder
gio
drake
bowls
##ivity
resear
nationally
interior
effectively
connecticut
ioc
illness
##aur
byron
grown
115
va
independent
accomplished
absolute
oliv
rebounding
myers
stays
southgate
trojans
247sports
emirates
czech
fsu
minus
stoppage
##do
earth
permanent
sea
##elle
scandal
freed
##hen
##lling
sheffield
ridiculous
assignment
reception
##ounts
temper
verd
5th
##asts
hudders
fen
curve
written
richards
steady
pacific
huddersfield
pederson
routine
rashford
prompt
blitz
badgers
discussions
background
hers
study
##cow
actions
jobs
roman
##amey
maria
##ulting
bishop
nose
ov
transl
##bles
dale
bush
attended
showc
fault
##da
##ora
##fri
##stone
reliable
mut
duncan
##nings
hamp
write
ligue
keys
federal
##park
eagle
##fs
goodell
##alled
##chang
atop
willie
inspired
pursuit
wonderful
##osing
visits
writers
badly
responsible
top25
patterson
##hardt
brist
boot
##ensions
benz
arbitration
##quent
hotspur
##bach
lights
quar
calf
pros
111
jumper
scherzer
trotz
sarri
255
ortiz
##colm
longhorns
##ray
##enzo
manziel
trim
malcolm
winless
##week
##midt
deck
cad
radar
chuck
exam
web
##illes
sooners
sin
drought
##ji
joh
tear
eligibility
significantly
talents
competit
stu
filed
sentinel
##wide
delayed
112
skating
appl
flip
stress
mentally
lanka
tips
##kh
##oport
1995
lob
sessions
lux
lawsu
##isp
##whelming
farm
tomlin
burst
norwich
jav
defeating
toe
contribute
barg
argument
protection
technology
mates
demarcus
##aney
##west
dismissed
terrific
heck
dc
##low
hendrick
shooter
cabrera
declared
introduced
dominance
##agan
cities
personality
rapoport
##ht
lightweight
odell
retiring
1997
##17
versatility
##ieri
##omez
draymond
##izer
interviews
jess
neut
intensity
##elling
referees
##active
##yne
lan
touches
ricky
robin
##haun
prol
hoff
vince
depending
unanimous
##estyle
hudson
reveal
kell
ease
cox
unexp
193
reun
lasted
##ateful
research
mit
chosen
kennedy
ipl
190
collected
collective
movie
acquis
twenty
youngster
hiring
stras
stafford
nerv
benjamin
clayton
bun
visited
lance
briefly
creative
hayes
mcm
##reh
arnold
unexpected
affili
assess
##gerald
guide
virtual
hoops
facilities
sister
##aug
pray
marcel
torres
mak
haul
powell
blank
fuller
seam
reel
predicted
ashley
completion
##wan
honda
ajax
uncom
##xton
ts
malik
providence
inev
##enter
sexual
selling
posit
##avid
lie
leadoff
batsman
109
##thur
connection
reduced
legitimate
sny
whip
reflect
represented
novak
distract
wave
ast
relay
bom
##ppe
sore
whites
newly
efficiency
doll
giannis
frazier
wnba
##rov
##gl
viewers
##llo
outbreak
stokes
folks
digit
mba
tam
meth
hanging
richmond
serge
pregame
guer
corners
draws
hayward
dressing
stal
spotlight
riders
welter
mol
carrying
statistics
##oe
##known
cha
davies
retain
ucf
stepping
acquire
battled
##eers
tast
elev
dillon
discipline
goog
hull
kc
watkins
phase
tank
launched
curtis
achilles
deshaun
flacco
thorn
sales
skate
unknown
expensive
pure
controversy
shap
tempor
redd
manuel
colon
##oman
##uses
pff
##anson
##base
encouraging
duty
fouled
cfl
ek
sounders
motivation
greens
##ketball
discover
fitzgerald
carp
nico
vert
burrow
wanting
alter
designed
niger
gase
threes
##rich
collegi
purpose
restricted
seth
aus
reveals
postgame
##iously
util
19th
##worth
slump
store
winds
##roe
douglas
aggies
dreams
depend
fined
##imeter
pt
wig
para
marquette
edelman
muscle
rever
mouth
umpire
internet
kurt
navy
singled
clause
celebrating
relax
affair
swiss
relievers
clint
merc
##icial
qualifier
woj
mcdonald
punches
conclusion
schedul
##din
isol
quarant
strip
topped
worthy
##ilit
dos
selections
mayor
slowly
reggie
booker
marvin
nervous
editor
bristol
enters
variety
##oria
##boro
territ
myles
tougher
hors
fallen
stake
widely
rosters
understood
##amped
ced
columbia
##enny
blacks
augusta
trophies
##ema
newcom
verlander
expert
gate
nickn
sink
neutral
##inney
daniels
blown
sooner
standards
tav
##etted
beer
loses
##usion
shaq
dominate
##zig
trips
laid
##lan
##cks
argue
##otti
handling
chapman
guilty
##action
wash
##atan
arsene
vas
crush
mclaren
nowhere
##ctors
comparison
compos
##icio
##lled
dates
perimeter
bloom
##ni
shir
anch
addressed
execut
authorities
##ozan
bc
predic
##dt
rumours
experts
##ading
belgian
thousands
factors
shoes
##iner
confer
derozan
blowout
church
##lined
arrow
hawai
dana
shares
webb
roughly
admit
quarterfinal
hammer
indies
fortunate
fb
scottish
buzzer
ct
##iration
##gb
##vi
doctor
unus
outfit
grid
114
vern
projections
gang
##manuel
fullback
honour
indicated
everywhere
battles
sacrifice
quit
##utions
covering
unfortunate
millions
fier
##cot
tent
portugues
slugg
scenes
lonzo
clinched
tore
recording
byu
##makers
dominating
instit
duties
##ropriate
mindset
bj
jane
stakes
fourn
signature
lp
tatum
portuguese
koep
japanese
lampard
owns
machine
betts
grateful
uncertainty
mccaff
halfway
achieved
industry
boone
deciding
eri
jama
sick
##friend
gymnast
feat
mariota
premiers
bother
stol
equip
contain
dozen
dixon
occurred
colombia
collegiate
leip
waivers
nu
##fts
crimson
gotta
crossed
##lock
moscow
sugg
sight
encounter
ezek
pats
francis
deeper
##ameyang
##bark
shop
aubameyang
rend
1994
gardner
##ctions
##atched
##enzie
wells
suggests
salv
julio
ezekiel
koepka
landry
reference
wow
convinced
cats
apiece
shocked
smooth
minors
lbs
scoreboard
boyd
kos
##thr
ist
cage
anders
involve
##wayne
##ika
lawsuit
##ems
##ondo
##vant
figured
technique
##oli
aven
netted
arrive
chile
gp
chest
##ecast
peak
##ori
lf
##vay
wilder
surface
ballpark
importantly
##kes
welterweight
gallery
google
freshmen
##oval
##uguay
larger
document
butt
##lon
nou
##state
pursue
tweets
jennings
##cr
fumbles
cer
fres
charity
attempting
sharing
cliff
language
whistle
needing
uruguay
surprisingly
##eech
##iri
warning
##estone
##bled
uses
21st
aguero
albion
##elled
timeout
gomez
catal
##mouth
##gg
tears
cups
raj
##quir
poised
weapon
rack
welcom
reynolds
ski
inches
slipped
darius
doctors
indycar
aid
offence
unve
strasburg
education
investment
fang
embed
noise
##unte
mcvay
challenged
upgrade
registered
mask
info
downtown
##ezmann
mcdavid
territory
offs
treated
infielder
gent
solution
##ahl
withdraw
##orth
consideration
inex
portion
turnaround
##eastern
fare
anticipated
knox
speech
lately
fish
kol
116
leipzig
corps
presum
traffic
additions
angry
tone
pp
harvick
batted
classes
##aire
holland
patient
averages
maximum
gasol
successive
dip
##rosse
resour
griezmann
robbie
pulis
sealed
160
grace
corm
rider
rebuilding
wrap
##ux
princip
attorney
follows
panel
slate
doors
philos
governing
##uy
##encing
mcn
pivot
##uire
##dan
trained
premiership
homest
formation
holly
henrik
method
petersburg
##izon
feather
rear
mission
klay
invitational
shout
shawn
haskins
xf
##ole
decisive
##odes
sab
melvin
gi
##astr
volunte
loft
##onym
clip
vi
apply
simpson
##abe
chemistry
##raid
philip
angle
##uber
competed
##hs
lynn
tanne
cot
##tl
##yees
meter
targeted
earnhardt
hearts
##orms
semin
##eps
argentine
offenses
pose
commercial
employees
zl
##ensen
hes
compreh
banner
conversations
tannehill
ozil
honored
signal
##enh
chevr
maddon
##tha
intense
bradford
shoots
male
6th
rust
rab
dwight
discusses
##card
underway
advers
##uts
rip
invited
cardinal
skid
##stown
counts
7th
closely
motion
##rain
kap
hicks
caliber
philosoph
clown
bruyne
knocking
newslet
##ittany
##24
slugger
underw
##inge
eden
##urg
##getown
gul
welsh
conferences
jamal
impression
lengthy
colise
watches
drum
##works
trig
reminder
qualification
lacrosse
monitor
corre
ig
khal
mauricio
conley
threatened
##inka
coliseum
##lam
renew
##oses
##east
entertaining
preferred
cormier
therefore
verst
130
assume
bi
dollars
700
gilbert
trave
fs1
epic
informed
chevrolet
packed
##30
##berry
terrell
setback
rib
restaur
enh
remembered
clarke
##li
clim
raced
myst
dating
yu
##otten
##rees
intended
repair
eventual
stadiums
##asingly
emotions
illustrated
schefter
initi
##pedes
1992
ing
unrest
cespedes
cord
##angelo
whoever
reads
##ila
dijk
interference
blind
georgetown
increasingly
flores
fedex
finalist
thin
##eties
##aj
emergency
ejected
truck
delighted
##qvist
emotion
madness
nikola
identity
noticed
##ultz
##rad
audience
peace
constantly
besides
patience
mum
bone
##ibilities
escape
bath
##iu
hs
closest
plane
##iba
racial
joke
##herford
rol
cancelled
insurance
##ques
inaug
typical
denmark
vog
slated
odi
##onta
ideas
desmond
divers
legends
ruling
hint
##gm
##ews
disaster
strengths
veon
political
holder
isaac
offside
highs
nb
117
accurate
fran
explo
tipped
vernon
afraid
rapids
seeds
flaw
bosa
bolster
dhoni
mccaffrey
delivery
fake
##pi
unn
broadcas
##16
canes
inconsistent
brace
showcase
jarrett
logo
##pan
arlington
##aces
1993
##uve
globe
yankee
proposed
discussing
stolen
noting
tiebre
ax
##uchel
170
kendrick
lal
overlook
announcing
victim
contributions
##eler
##uals
parade
##oke
font
##unning
##caps
rutherford
file
wich
spectators
elected
##etti
snyder
driven
dwayne
assuming
lut
##umbled
finalists
##eder
hawaii
##rard
veh
shea
abc
sprained
##phers
praised
middleweight
michel
3s
singh
nap
teenager
cj
proced
favourites
photograph
atp
stole
##imal
##verde
##izar
digital
##ribune
stein
champs
##enna
gophers
bend
defenceman
reyes
vertical
racism
##derm
sympt
enth
##chan
parties
wrapped
synd
##gart
pett
##elines
glas
lexington
mcle
qbs
staples
conditioning
element
quin
##dom
herman
##brough
freedom
##oub
##lay
##san
##mag
springs
dunn
swinging
manner
holmes
pye
sticking
##itzki
weber
drafting
une
##alth
touched
##eny
wondering
gust
##zuk
popovich
elimination
measures
##aux
gest
arriving
bolt
generated
pg
plain
##appen
firmino
podcasts
180
adapt
jumping
jed
##otic
posts
##rington
lorenzo
rousey
sta
eriks
controlled
##strong
virtually
coinc
luka
118
sv
mbappe
##ean
swift
##eldon
egy
##asi
##lee
##erts
views
implement
newsp
##ifts
##ui
shine
heights
proposal
##ecess
##ighton
repeatedly
equipment
cough
##hm
1990
ashes
feelings
##atter
dominic
transfers
attacks
concent
checked
bris
cornerbacks
##etta
##annon
vast
underdog
lockdown
favored
wichita
protocol
##inct
##ayette
realistic
advert
newspap
khan
slider
schwart
gerrard
##ware
underwent
6a
awk
cycling
oldest
relative
oscar
bowman
ling
counting
baldwin
organis
herrera
chamber
egypt
burke
anto
genu
waiver
asu
euros
gregg
represents
##illing
mode
intell
ud
cald
shocking
##awn
chant
induct
spokesman
##erv
arthur
awkward
tossed
##closed
suprem
costs
bitter
patric
##acks
gav
thumb
safeties
25th
weapons
##ongchang
primarily
damian
berry
##ables
##amm
##owed
gmt
hid
fas
lit
deport
iconic
outd
bah
##14
pyeongchang
pi
zlatan
franco
##opher
uniforms
##cco
##arm
davidson
cc
hundreds
performing
seminoles
undergo
hi
nats
anytime
##anded
fcs
inaugural
asian
##orious
juve
##ailoa
protests
farrell
verstappen
##ivo
##idi
outlook
regarded
##etic
##giving
##ked
msu
kamara
##pc
adjustments
ine
aspect
strained
stephens
900
##omer
lpga
205
nab
boast
viewed
##alke
ship
fernand
thrilling
squads
ramp
captured
fold
tagov
##ali
##enez
hoos
periods
practicing
rex
villar
kro
false
giroud
skip
pill
##beau
skin
user
##ocity
pro32
##leman
tagovailoa
reck
##mm
courts
reverse
bort
vand
unpre
unusual
humph
##iao
afterward
notably
convert
conversion
##power
newman
aces
replied
prev
differently
##rance
punter
morata
wals
##through
##enberg
bump
surge
cycle
##sc
nrl
qualifiers
fate
nat
shirts
fitting
nigeria
chronicle
devastating
##udi
##15
motivated
kes
neville
dive
liv
specialist
kitch
cobb
sought
kier
tick
hardest
fbs
bengal
caution
compare
gea
reasonable
backing
nightm
##basketball
##put
bam
truex
midfielders
indef
##tv
##isions
##mie
caleb
sequ
##ennial
matching
rudolph
jame
30th
filling
dee
structure
##inations
civ
fresno
pip
attribut
##13
##agher
##elu
lacking
##asley
##olved
##uana
kuznet
shoulders
jayson
forces
##emed
soci
wheeler
ze
luxury
##ows
benefits
bowlers
kuznetso
##ease
##osh
owens
##23
fears
olsen
hav
proving
routes
ng
##uma
##ras
bodies
camera
bleacher
antoine
consol
norris
jaylen
shadow
rushers
kess
##usk
duff
equally
enthus
escap
vars
pab
securing
comprehensive
andr
fool
dab
icc
diagnosed
annivers
xfinity
##ppers
exceed
writes
rejected
notch
sample
##lein
incomp
messages
jak
doublehead
##uce
naturally
rodney
appearing
##elps
##rique
roof
kit
lloyd
taste
##gee
jerome
jags
caldwell
flowers
bm
highlighted
nagy
dion
##mz
javier
##aheem
##ige
santana
dell
begun
##zingis
kor
##beit
##aver
valent
mall
thrilled
featherweight
tanner
citiz
8th
unh
kuch
slo
##iction
##aya
avoided
porzingis
waived
##icted
mood
lifetime
##lu
individuals
kyr
##hire
goalsc
patch
##aders
puig
quint
rico
adri
hamlin
##usen
asset
bernard
stitch
absent
lak
##areness
145
topic
quarantine
complicated
budget
beth
context
##borough
projects
carol
correa
optimism
zion
elway
kaz
gau
camps
dinner
hesit
nicolas
anniversary
22nd
accuracy
santiago
decline
yield
awareness
guidelines
lunch
horses
119
##bane
mechan
prose
mans
##ruption
diggs
##isl
extending
trigger
echo
jokic
lem
newsletter
nail
beasley
lists
restrictions
##sson
strongly
##vic
vul
realized
eve
##oooo
adop
moss
sque
communication
endured
stuart
philippe
symptoms
holy
align
gamecock
overc
pond
demands
embarrassing
9th
pairing
ceiling
christopher
dry
whiteside
auto
facts
contrast
##pre
shame
scri
crashed
compan
haas
135
hollow
marketing
resources
herself
approved
virat
plag
holtby
undoub
nbcsn
andrews
##ricted
126
values
phelps
##tedly
##iesta
girlfriend
bottas
lamb
deflected
dynamo
unrestricted
alli
sting
fro
exceptional
kip
albeit
##ijuana
expectation
tools
foreign
horford
blocker
##ioned
qat
ethan
tops
causing
medio
concluded
shaun
wander
##uous
raheem
una
js
archer
220
##loy
emmanuel
husband
nolan
acquisition
rena
indefin
halep
ware
##cup
powers
##live
frequently
anx
focusing
##shire
fewest
##mus
carey
fors
survived
wideout
##van
bets
rewarded
resort
producing
osaka
mexican
kub
owen
castro
collection
##inder
exercise
donaldson
attending
aldridge
##olve
##cedented
activity
bike
##dermott
anonym
scary
rocky
hood
unprecedented
keenum
##ential
##apova
minister
janeiro
##wo
varsity
questioned
drafts
successfully
salaries
gregory
##utes
baut
punishment
##enk
hinch
mcdermott
tomas
promote
crunch
hag
survive
edu
sprain
splash
##ients
kare
icel
23rd
blanc
gymnastics
##ached
pablo
##king
burton
kyler
##ses
recommend
##ighter
##isson
stunned
185
muham
banks
superior
rudy
pending
rs
deny
unfair
##urm
desperately
bant
fleet
##bu
revenge
##apse
quote
spur
carmelo
operation
freder
gunnar
tx
golfer
bautista
liam
##rin
##stra
disease
##edown
extent
##hu
gund
flew
rig
kemp
dum
sask
##icles
140
jaw
hartford
warned
velocity
pell
petr
submission
bizar
##isk
##ych
overcame
respected
adjusted
fu
pierce
shep
5a
sutton
##arios
schwartz
##achel
iceland
hardy
##andro
fournette
craft
1988
loyal
##kinson
##road
arab
lag
fortunately
sham
allegedly
edged
phenomenal
thanksgiving
balanced
hein
indication
##ladesh
standpoint
bangladesh
##omedov
ligament
armstrong
maintained
protocols
clowney
stance
##pack
angelo
ey
hous
competitors
footage
##ifying
hurd
phillip
24th
fenway
assured
relegated
disag
consult
afterwards
critics
inn
identified
flank
##itage
traveling
1991
obj
blowing
##ais
serbia
resc
booth
void
rested
##ingers
ther
##ilic
##champ
relent
thir
hok
##ensus
trash
altuve
dribb
##aved
yo
rings
payroll
##quon
lars
##char
queen
geoff
5m
philosophy
hyde
stup
rag
##igious
representing
herbert
hann
yas
sty
tricky
oswe
fence
youngsters
jayhawks
##xim
covers
coff
supported
workers
appropriate
appointed
waited
serves
hawkey
arr
flick
##ken
vlad
buddy
extraordin
bent
##abor
gibbs
illegal
insist
##iot
##ipari
##geron
26th
madden
bantam
sparked
prison
sponsor
bizarre
exem
cunning
pacqu
tire
forecast
possess
achievement
afl
kelce
vr
##gaard
ral
walsh
offici
defends
prelimin
olivier
yel
dunbar
buying
intellig
hungry
##oked
code
asia
##ugged
##ifer
bridgewater
patriot
hogan
sharapova
##umbling
collegebasketball
pressing
violation
minic
cain
sneak
mine
breakaway
grey
shore
plant
romelu
forgotten
122
disresp
meaningful
quietly
##ihad
prolific
sweat
tempo
sustain
participating
barb
welcomed
##rom
##etcher
##igley
encouraged
##sburg
generate
collapse
arians
kareem
woes
norway
rondo
powered
##ception
promised
minicamp
ki
valverde
pts
##lain
occup
estimated
doubleheader
scra
goalies
targeting
pacquiao
jac
silence
undoubtedly
##ella
##aho
##say
explan
types
flexibility
pled
hover
nurmag
heritage
backhand
grades
calipari
##laim
##lessly
##oko
##rero
theme
lt
representatives
wiggins
##cb
dwy
som
maker
medic
dublin
button
blessed
##acaf
sep
projection
asse
opposed
scrum
bul
random
tallied
heath
dwyane
concacaf
losers
##xx
schalke
penns
whitecaps
jameis
##eri
##the
poland
unw
rolls
engaged
credited
nurmagomedov
breakthrough
military
degr
carlson
footballer
mri
##vish
kills
##idas
technically
thorough
calvin
isra
##ione
maxim
slopp
lewand
similarly
berlin
stall
kas
misc
duck
octagon
brisbane
electric
motorsports
nightmare
sidney
123
abilities
##encies
academic
dual
4a
beard
manfred
cov
zo
tracks
approaching
ruiz
emerge
participation
stealing
recognition
fried
recruitment
vulner
fand
aber
121
plagued
##gman
##ulty
lawson
heyward
gamecocks
killing
jacobs
execute
journalism
##urned
describe
toughness
substance
pine
saving
wreck
##usted
booked
damn
stiff
##bele
lomb
israel
neighbor
labor
##gios
lesson
muhammad
anger
middles
takedown
strongest
construction
digits
##iac
intercepted
degrees
dies
bortles
darvish
rd
competitor
severe
approached
suff
lord
glen
milestone
notched
sag
flags
activated
##fast
osweiler
franchises
inevitable
logano
unfor
suggesting
gat
##cious
contributor
##hh
doncic
wta
ranch
ensu
cunningham
bever
freestyle
excuse
executives
hos
displayed
tulsa
##cre
convince
holders
consensus
syn
##fall
alc
timbers
victims
kre
lewandowski
midst
fielding
md
yardage
bomb
opinions
jade
reserves
medalist
toll
newspaper
chipped
##onen
pil
pope
##imir
pund
##21
##acht
##elin
rica
behavior
sorts
schmidt
##km
ballot
stead
3a
freak
kov
sime
grounds
pivotal
officers
disney
##utt
hed
andrea
carpenter
##vs
expanded
tactics
southeastern
revolution
##nation
ratt
acquiring
exposed
preston
dani
decor
nittany
cited
##barker
evident
khalil
properly
##ears
kneel
1984
##zzo
hars
##qual
qatar
scale
29th
dembele
dedicated
kyrgios
##iti
kuznetsov
stade
##post
cory
##ido
1986
practiced
124
choices
matur
poorly
indoor
lester
##vell
stretches
##pris
freddie
distancing
meets
analyt
karls
kirby
quicker
mini
grabs
chi
##baseball
fernandez
braun
##aza
marque
cell
intim
switched
##orse
lacked
##vania
inspiration
prominent
televised
affiliate
##cz
nickname
marse
dear
austria
doubts
rounded
venus
etc
society
1989
schne
jad
regret
destination
stable
availability
wasted
romero
lw
fm
lining
##inke
##aniel
##raham
modest
yam
queens
28th
poun
yardbarker
material
election
complement
frances
##idy
##wick
ske
stupid
centers
hack
horri
fulf
scare
##elli
admir
inher
gross
companies
##kel
felix
ler
garner
llor
wet
implic
vols
##rage
listening
nbcsports
arts
##asco
